#include "model.h"


alignas(16) const unsigned char g_model[] = {
  0x20, 0x00, 0x00, 0x00, 0x54, 0x46, 0x4c, 0x33, 0x00, 0x00, 0x00, 0x00,
  0x14, 0x00, 0x20, 0x00, 0x1c, 0x00, 0x18, 0x00, 0x14, 0x00, 0x10, 0x00,
  0x0c, 0x00, 0x00, 0x00, 0x08, 0x00, 0x04, 0x00, 0x14, 0x00, 0x00, 0x00,
  0x1c, 0x00, 0x00, 0x00, 0x84, 0x00, 0x00, 0x00, 0xdc, 0x00, 0x00, 0x00,
  0x1c, 0x0b, 0x00, 0x00, 0x2c, 0x0b, 0x00, 0x00, 0x88, 0x20, 0x00, 0x00,
  0x03, 0x00, 0x00, 0x00, 0x01, 0x00, 0x00, 0x00, 0x04, 0x00, 0x00, 0x00,
  0xa6, 0xf2, 0xff, 0xff, 0x0c, 0x00, 0x00, 0x00, 0x1c, 0x00, 0x00, 0x00,
  0x3c, 0x00, 0x00, 0x00, 0x0f, 0x00, 0x00, 0x00, 0x73, 0x65, 0x72, 0x76,
  0x69, 0x6e, 0x67, 0x5f, 0x64, 0x65, 0x66, 0x61, 0x75, 0x6c, 0x74, 0x00,
  0x01, 0x00, 0x00, 0x00, 0x04, 0x00, 0x00, 0x00, 0x98, 0xff, 0xff, 0xff,
  0x1c, 0x00, 0x00, 0x00, 0x04, 0x00, 0x00, 0x00, 0x08, 0x00, 0x00, 0x00,
  0x6f, 0x75, 0x74, 0x70, 0x75, 0x74, 0x5f, 0x31, 0x00, 0x00, 0x00, 0x00,
  0x01, 0x00, 0x00, 0x00, 0x04, 0x00, 0x00, 0x00, 0x82, 0xf4, 0xff, 0xff,
  0x04, 0x00, 0x00, 0x00, 0x07, 0x00, 0x00, 0x00, 0x69, 0x6e, 0x70, 0x75,
  0x74, 0x5f, 0x31, 0x00, 0x02, 0x00, 0x00, 0x00, 0x34, 0x00, 0x00, 0x00,
  0x04, 0x00, 0x00, 0x00, 0xdc, 0xff, 0xff, 0xff, 0x1f, 0x00, 0x00, 0x00,
  0x04, 0x00, 0x00, 0x00, 0x13, 0x00, 0x00, 0x00, 0x43, 0x4f, 0x4e, 0x56,
  0x45, 0x52, 0x53, 0x49, 0x4f, 0x4e, 0x5f, 0x4d, 0x45, 0x54, 0x41, 0x44,
  0x41, 0x54, 0x41, 0x00, 0x08, 0x00, 0x0c, 0x00, 0x08, 0x00, 0x04, 0x00,
  0x08, 0x00, 0x00, 0x00, 0x1e, 0x00, 0x00, 0x00, 0x04, 0x00, 0x00, 0x00,
  0x13, 0x00, 0x00, 0x00, 0x6d, 0x69, 0x6e, 0x5f, 0x72, 0x75, 0x6e, 0x74,
  0x69, 0x6d, 0x65, 0x5f, 0x76, 0x65, 0x72, 0x73, 0x69, 0x6f, 0x6e, 0x00,
  0x20, 0x00, 0x00, 0x00, 0x3c, 0x0a, 0x00, 0x00, 0x34, 0x0a, 0x00, 0x00,
  0x20, 0x0a, 0x00, 0x00, 0x04, 0x0a, 0x00, 0x00, 0xe8, 0x09, 0x00, 0x00,
  0xd4, 0x09, 0x00, 0x00, 0xbc, 0x09, 0x00, 0x00, 0x9c, 0x09, 0x00, 0x00,
  0xdc, 0x04, 0x00, 0x00, 0xbc, 0x04, 0x00, 0x00, 0x4c, 0x04, 0x00, 0x00,
  0x1c, 0x04, 0x00, 0x00, 0x7c, 0x03, 0x00, 0x00, 0x40, 0x02, 0x00, 0x00,
  0x04, 0x01, 0x00, 0x00, 0xfc, 0x00, 0x00, 0x00, 0xf4, 0x00, 0x00, 0x00,
  0xec, 0x00, 0x00, 0x00, 0xe4, 0x00, 0x00, 0x00, 0xdc, 0x00, 0x00, 0x00,
  0xd4, 0x00, 0x00, 0x00, 0xcc, 0x00, 0x00, 0x00, 0xc4, 0x00, 0x00, 0x00,
  0xbc, 0x00, 0x00, 0x00, 0xb4, 0x00, 0x00, 0x00, 0xac, 0x00, 0x00, 0x00,
  0xa4, 0x00, 0x00, 0x00, 0x9c, 0x00, 0x00, 0x00, 0x94, 0x00, 0x00, 0x00,
  0x8c, 0x00, 0x00, 0x00, 0x6c, 0x00, 0x00, 0x00, 0x04, 0x00, 0x00, 0x00,
  0x76, 0xf5, 0xff, 0xff, 0x04, 0x00, 0x00, 0x00, 0x58, 0x00, 0x00, 0x00,
  0x0c, 0x00, 0x00, 0x00, 0x08, 0x00, 0x0e, 0x00, 0x08, 0x00, 0x04, 0x00,
  0x08, 0x00, 0x00, 0x00, 0x10, 0x00, 0x00, 0x00, 0x28, 0x00, 0x00, 0x00,
  0x00, 0x00, 0x06, 0x00, 0x08, 0x00, 0x04, 0x00, 0x06, 0x00, 0x00, 0x00,
  0x04, 0x00, 0x00, 0x00, 0x01, 0x00, 0x00, 0x00, 0xeb, 0x03, 0x00, 0x00,
  0x00, 0x00, 0x0a, 0x00, 0x10, 0x00, 0x0c, 0x00, 0x08, 0x00, 0x04, 0x00,
  0x0a, 0x00, 0x00, 0x00, 0x02, 0x00, 0x00, 0x00, 0x02, 0x00, 0x00, 0x00,
  0x04, 0x00, 0x00, 0x00, 0x06, 0x00, 0x00, 0x00, 0x32, 0x2e, 0x31, 0x32,
  0x2e, 0x30, 0x00, 0x00, 0xda, 0xf5, 0xff, 0xff, 0x04, 0x00, 0x00, 0x00,
  0x10, 0x00, 0x00, 0x00, 0x31, 0x2e, 0x31, 0x34, 0x2e, 0x30, 0x00, 0x00,
  0x00, 0x00, 0x00, 0x00, 0x00, 0x00, 0x00, 0x00, 0x84, 0xe1, 0xff, 0xff,
  0x88, 0xe1, 0xff, 0xff, 0x8c, 0xe1, 0xff, 0xff, 0x90, 0xe1, 0xff, 0xff,
  0x94, 0xe1, 0xff, 0xff, 0x98, 0xe1, 0xff, 0xff, 0x9c, 0xe1, 0xff, 0xff,
  0xa0, 0xe1, 0xff, 0xff, 0xa4, 0xe1, 0xff, 0xff, 0xa8, 0xe1, 0xff, 0xff,
  0xac, 0xe1, 0xff, 0xff, 0xb0, 0xe1, 0xff, 0xff, 0xb4, 0xe1, 0xff, 0xff,
  0xb8, 0xe1, 0xff, 0xff, 0xbc, 0xe1, 0xff, 0xff, 0x32, 0xf6, 0xff, 0xff,
  0x04, 0x00, 0x00, 0x00, 0x2c, 0x01, 0x00, 0x00, 0xc1, 0xc0, 0xc0, 0xc0,
  0xc0, 0xc0, 0xc0, 0xbf, 0xbf, 0xc0, 0xc0, 0xc0, 0xc0, 0xc0, 0xc0, 0xbf,
  0xbe, 0xc0, 0xc1, 0xc1, 0xc0, 0xbf, 0xbf, 0xc0, 0xbf, 0xc0, 0xc0, 0xc0,
  0xc0, 0xc0, 0xc0, 0xc0, 0xc0, 0xc0, 0xc1, 0xc2, 0xc2, 0xc1, 0xc2, 0xc2,
  0xc3, 0xc3, 0xc3, 0xc4, 0xc4, 0xc4, 0xc4, 0xc6, 0xc6, 0xc6, 0xc8, 0xc8,
  0xc9, 0xca, 0xcb, 0xcb, 0xcc, 0xcd, 0xce, 0xcf, 0xd0, 0xd1, 0xd1, 0xd2,
  0xd3, 0xd4, 0xd5, 0xd5, 0xd6, 0xd6, 0xd8, 0xd9, 0xd9, 0xda, 0xda, 0xdb,
  0xdb, 0xdb, 0xdd, 0xde, 0xde, 0xde, 0xde, 0xde, 0xdf, 0xdf, 0xdf, 0xdf,
  0xdf, 0xdf, 0xdf, 0xe0, 0xe0, 0xdf, 0xdf, 0xde, 0xdf, 0xdf, 0xdf, 0xdf,
  0xe0, 0xe1, 0xe1, 0xe2, 0xe1, 0xe2, 0xe2, 0xe2, 0xe2, 0xe1, 0xe0, 0xdf,
  0xdc, 0xd9, 0xd5, 0xd1, 0xcd, 0xc7, 0xc1, 0xbc, 0xb6, 0xaf, 0xa9, 0xa4,
  0x9e, 0x99, 0x94, 0x8f, 0x8b, 0x88, 0x86, 0x83, 0x82, 0x80, 0x80, 0x80,
  0x80, 0x84, 0x86, 0x84, 0x86, 0x8b, 0x8b, 0x91, 0x9b, 0xa6, 0xcd, 0xf6,
  0x44, 0x7f, 0x12, 0xc8, 0x0c, 0x34, 0x1a, 0x15, 0x30, 0x24, 0x26, 0x30,
  0x28, 0x2b, 0x30, 0x2f, 0x35, 0x3b, 0x3d, 0x42, 0x48, 0x4a, 0x4d, 0x4f,
  0x4d, 0x4d, 0x4b, 0x46, 0x43, 0x3d, 0x37, 0x31, 0x2b, 0x23, 0x1c, 0x16,
  0x0f, 0x09, 0x03, 0xff, 0xfa, 0xf7, 0xf4, 0xf1, 0xef, 0xed, 0xeb, 0xea,
  0xe8, 0xe7, 0xe6, 0xe6, 0xe6, 0xe5, 0xe5, 0xe6, 0xe5, 0xe6, 0xe5, 0xe5,
  0xe6, 0xe5, 0xe6, 0xe5, 0xe4, 0xe4, 0xe4, 0xe3, 0xe1, 0xe1, 0xe0, 0xe0,
  0xde, 0xdd, 0xdd, 0xdc, 0xda, 0xda, 0xd8, 0xd6, 0xd5, 0xd3, 0xd2, 0xd0,
  0xce, 0xcc, 0xca, 0xc9, 0xc7, 0xc5, 0xc4, 0xc2, 0xc1, 0xc0, 0xbf, 0xbe,
  0xbe, 0xbd, 0xbd, 0xbd, 0xbe, 0xbe, 0xbe, 0xbe, 0xbf, 0xbf, 0xc0, 0xc1,
  0xc0, 0xc1, 0xc1, 0xc2, 0xc1, 0xc1, 0xc2, 0xc3, 0xc3, 0xc3, 0xc3, 0xc3,
  0xc3, 0xc3, 0xc3, 0xc3, 0xc2, 0xc2, 0xc2, 0xc1, 0xc0, 0xbf, 0xbe, 0xbd,
  0xbc, 0xbc, 0xbc, 0xbb, 0xba, 0xb8, 0xb8, 0xb9, 0xb6, 0xb7, 0xb6, 0xb5,
  0xb5, 0xb4, 0xb4, 0xb4, 0xb3, 0xb3, 0xb2, 0xb1, 0x6a, 0xf7, 0xff, 0xff,
  0x04, 0x00, 0x00, 0x00, 0x2c, 0x01, 0x00, 0x00, 0x71, 0x70, 0x6f, 0x6e,
  0x6d, 0x6c, 0x6b, 0x6b, 0x6a, 0x67, 0x65, 0x65, 0x65, 0x63, 0x63, 0x62,
  0x61, 0x62, 0x64, 0x60, 0x5e, 0x5e, 0x5d, 0x5b, 0x5a, 0x59, 0x57, 0x56,
  0x55, 0x53, 0x51, 0x50, 0x4e, 0x4c, 0x4b, 0x49, 0x48, 0x46, 0x45, 0x44,
  0x41, 0x40, 0x3e, 0x3d, 0x3b, 0x39, 0x38, 0x36, 0x34, 0x32, 0x31, 0x2f,
  0x2e, 0x2c, 0x2a, 0x28, 0x26, 0x24, 0x23, 0x21, 0x1f, 0x1d, 0x1b, 0x1a,
  0x18, 0x16, 0x15, 0x13, 0x11, 0x0f, 0x0e, 0x0c, 0x0b, 0x0a, 0x08, 0x07,
  0x06, 0x05, 0x04, 0x03, 0x02, 0x01, 0x00, 0xff, 0xfe, 0xfd, 0xfc, 0xfc,
  0xfb, 0xfa, 0xf9, 0xf8, 0xf7, 0xf6, 0xf5, 0xf4, 0xf3, 0xf1, 0xf0, 0xef,
  0xee, 0xec, 0xeb, 0xe9, 0xe8, 0xe6, 0xe5, 0xe3, 0xe2, 0xe0, 0xdf, 0xdd,
  0xdc, 0xda, 0xd9, 0xd8, 0xd6, 0xd5, 0xd3, 0xd2, 0xd0, 0xce, 0xcd, 0xcb,
  0xc9, 0xc7, 0xc6, 0xc4, 0xc2, 0xc1, 0xbf, 0xbe, 0xbd, 0xbb, 0xba, 0xb9,
  0xb8, 0xb7, 0xb6, 0xb5, 0xb4, 0xb4, 0xb3, 0xb2, 0xb2, 0xb1, 0xb1, 0xb2,
  0xb2, 0xb2, 0xb5, 0xb8, 0xb9, 0xbd, 0xc0, 0xbf, 0xc0, 0xbe, 0xbc, 0xbb,
  0xb9, 0xb8, 0xb8, 0xb7, 0xb7, 0xb8, 0xb8, 0xb9, 0xba, 0xba, 0xbb, 0xbc,
  0xbd, 0xbe, 0xbf, 0xc0, 0xc2, 0xc3, 0xc4, 0xc6, 0xc7, 0xc9, 0xcb, 0xcc,
  0xce, 0xcf, 0xd1, 0xd3, 0xd4, 0xd6, 0xd7, 0xd9, 0xda, 0xdc, 0xdd, 0xdf,
  0xe1, 0xe2, 0xe4, 0xe5, 0xe7, 0xe9, 0xea, 0xec, 0xee, 0xef, 0xf1, 0xf3,
  0xf4, 0xf6, 0xf8, 0xfa, 0xfb, 0xfd, 0xff, 0x01, 0x02, 0x04, 0x06, 0x07,
  0x09, 0x0b, 0x0c, 0x0e, 0x0f, 0x11, 0x12, 0x13, 0x15, 0x16, 0x18, 0x19,
  0x1a, 0x1b, 0x1c, 0x1e, 0x1f, 0x20, 0x21, 0x22, 0x23, 0x24, 0x25, 0x26,
  0x26, 0x27, 0x28, 0x29, 0x29, 0x29, 0x2a, 0x2a, 0x2a, 0x2b, 0x2b, 0x2b,
  0x2b, 0x2c, 0x2c, 0x2d, 0x2d, 0x2e, 0x2e, 0x2f, 0x30, 0x32, 0x33, 0x34,
  0x35, 0x37, 0x39, 0x3b, 0x3d, 0x3f, 0x41, 0x43, 0x46, 0x47, 0x4a, 0x4c,
  0x4f, 0x51, 0x54, 0x58, 0x5a, 0x5d, 0x60, 0x63, 0x67, 0x69, 0x6b, 0x6d,
  0x70, 0x73, 0x75, 0x77, 0x79, 0x7b, 0x7d, 0x7f, 0xa2, 0xf8, 0xff, 0xff,
  0x04, 0x00, 0x00, 0x00, 0x90, 0x00, 0x00, 0x00, 0x03, 0x52, 0x37, 0xd8,
  0xeb, 0x81, 0xfb, 0xff, 0xcd, 0x9b, 0x2b, 0xf9, 0x08, 0x24, 0x01, 0xdf,
  0xe8, 0xe4, 0xd1, 0xc7, 0x31, 0x7f, 0xeb, 0x41, 0x51, 0xd1, 0xe6, 0x14,
  0xb5, 0xf2, 0xc7, 0xe2, 0x43, 0x03, 0x22, 0x39, 0xcf, 0x81, 0x24, 0xe1,
  0xc7, 0x19, 0xb7, 0x9f, 0x0d, 0x06, 0xe2, 0xe8, 0x00, 0xca, 0xe1, 0x0b,
  0xfc, 0xf9, 0xb5, 0xbb, 0x0a, 0x4a, 0x29, 0x17, 0x81, 0xa9, 0xab, 0x39,
  0x25, 0xda, 0x09, 0xbd, 0x99, 0x29, 0x07, 0x32, 0x3b, 0x66, 0x1f, 0xf7,
  0x28, 0x1c, 0x01, 0x47, 0x1d, 0x06, 0xf9, 0xff, 0x42, 0x7f, 0x53, 0x15,
  0x0e, 0x4d, 0x48, 0x73, 0xfd, 0xd2, 0x35, 0xc3, 0x58, 0x2f, 0x4b, 0x40,
  0x75, 0xf3, 0x7f, 0x20, 0x12, 0x16, 0xfc, 0x17, 0x14, 0xfe, 0x63, 0x3a,
  0x10, 0x55, 0xf6, 0x08, 0x4d, 0x1b, 0xfd, 0x48, 0xeb, 0x7f, 0x19, 0x5d,
  0xff, 0xf3, 0x24, 0x7f, 0x13, 0xdd, 0x1e, 0xf1, 0x35, 0x6b, 0x34, 0x35,
  0x36, 0x15, 0x56, 0x71, 0x17, 0xd1, 0x23, 0x2f, 0x3e, 0xf9, 0xff, 0xff,
  0x04, 0x00, 0x00, 0x00, 0x20, 0x00, 0x00, 0x00, 0x50, 0xf9, 0xff, 0xff,
  0x31, 0x00, 0x00, 0x00, 0xd3, 0x01, 0x00, 0x00, 0xbd, 0xfb, 0xff, 0xff,
  0xca, 0xfd, 0xff, 0xff, 0x85, 0xf9, 0xff, 0xff, 0xa6, 0xfc, 0xff, 0xff,
  0x08, 0xfc, 0xff, 0xff, 0x6a, 0xf9, 0xff, 0xff, 0x04, 0x00, 0x00, 0x00,
  0x60, 0x00, 0x00, 0x00, 0x5d, 0x21, 0xfa, 0x04, 0x3f, 0xed, 0x0a, 0xe1,
  0x7f, 0x2e, 0x03, 0x21, 0x42, 0x06, 0x44, 0xcf, 0x0c, 0x07, 0x04, 0x18,
  0x2b, 0xd1, 0x39, 0xe8, 0x21, 0x09, 0x7f, 0xb8, 0xdc, 0xed, 0x33, 0xe1,
  0x30, 0x37, 0x56, 0xf1, 0xe5, 0x1e, 0x00, 0xe2, 0xf4, 0x5c, 0x39, 0xe7,
  0xf2, 0x31, 0x24, 0xd1, 0x26, 0x09, 0xba, 0xfa, 0x36, 0x49, 0x0f, 0x32,
  0x4d, 0xfa, 0xc4, 0x25, 0x1c, 0x7f, 0x11, 0x5c, 0x16, 0xde, 0xbf, 0x06,
  0x30, 0x38, 0x06, 0x1b, 0x58, 0x2d, 0xea, 0x32, 0x16, 0x3c, 0x30, 0x24,
  0x4b, 0xdd, 0xe9, 0x73, 0x0a, 0x7b, 0x50, 0x3d, 0x7f, 0x3c, 0xf1, 0x10,
  0x04, 0x74, 0xbc, 0x6d, 0xd6, 0xf9, 0xff, 0xff, 0x04, 0x00, 0x00, 0x00,
  0x10, 0x00, 0x00, 0x00, 0xa8, 0xf7, 0xff, 0xff, 0xc7, 0x03, 0x00, 0x00,
  0x7c, 0xfe, 0xff, 0xff, 0x74, 0xf3, 0xff, 0xff, 0xf2, 0xf9, 0xff, 0xff,
  0x04, 0x00, 0x00, 0x00, 0xb0, 0x04, 0x00, 0x00, 0xe3, 0xd3, 0x1d, 0x21,
  0xe8, 0xc5, 0x22, 0x08, 0xf5, 0x9a, 0x1c, 0x0f, 0xe7, 0xb9, 0x11, 0x02,
  0xf6, 0xb6, 0x03, 0x05, 0xf7, 0xce, 0x0d, 0xf6, 0x02, 0xfd, 0x0a, 0x1e,
  0x05, 0x0c, 0x0f, 0x03, 0xff, 0xf7, 0x12, 0x0b, 0xf6, 0x01, 0xfd, 0x12,
  0xff, 0x12, 0x25, 0x15, 0x03, 0x11, 0x19, 0x0a, 0xe9, 0x17, 0x05, 0xf6,
  0x04, 0x0e, 0x09, 0xe4, 0xf2, 0xe7, 0x0b, 0xf0, 0xfd, 0xf9, 0x12, 0xe2,
  0xf0, 0xe0, 0x08, 0xdd, 0xe5, 0xcb, 0x05, 0xcb, 0xe7, 0xd9, 0x0e, 0xd9,
  0xc0, 0xee, 0x19, 0xbe, 0xcf, 0xd5, 0x21, 0xf3, 0xdf, 0xe0, 0x0f, 0xcb,
  0xc9, 0xf5, 0xec, 0xe8, 0xb7, 0xf0, 0xf4, 0xe6, 0xd2, 0x04, 0xec, 0xea,
  0x0b, 0xe0, 0xf3, 0xfd, 0x03, 0xdc, 0x1c, 0xf8, 0x03, 0xe7, 0x0b, 0x10,
  0x0f, 0x00, 0x03, 0xf7, 0x0e, 0xf9, 0x0a, 0x11, 0x0e, 0xfb, 0xf7, 0xe0,
  0xfa, 0xf4, 0xfd, 0xd8, 0x0e, 0x05, 0xd6, 0xf6, 0x29, 0x0e, 0xce, 0xf8,
  0xfd, 0xf5, 0xdf, 0xf7, 0x12, 0xf3, 0x03, 0x04, 0x1d, 0xde, 0x08, 0xfd,
  0x12, 0x02, 0x05, 0xf2, 0xe9, 0xf4, 0xe1, 0xf2, 0xe2, 0xed, 0xfa, 0x06,
  0xf6, 0x09, 0xf6, 0x08, 0x07, 0x0c, 0xe7, 0x0f, 0x22, 0x06, 0xf3, 0xf6,
  0x1c, 0x00, 0x18, 0x1a, 0x27, 0x12, 0x0b, 0xff, 0x08, 0x18, 0x0b, 0x11,
  0x0d, 0x05, 0x0b, 0x09, 0x12, 0x07, 0x02, 0x07, 0x09, 0xfb, 0x0a, 0x06,
  0x12, 0xf7, 0x13, 0x17, 0xff, 0x02, 0x24, 0x0d, 0x12, 0x03, 0x1d, 0x0b,
  0x10, 0xfb, 0xf8, 0x1e, 0x0f, 0x0b, 0x18, 0x19, 0x0d, 0x05, 0x27, 0x18,
  0x05, 0x05, 0x09, 0xf9, 0xf2, 0x01, 0x1f, 0x06, 0x05, 0x00, 0x02, 0x09,
  0x02, 0x0e, 0x06, 0x14, 0xeb, 0x0e, 0x19, 0x20, 0xf2, 0xff, 0x02, 0x11,
  0xf8, 0x00, 0x05, 0x11, 0xfb, 0xfd, 0xf0, 0x12, 0x0a, 0xef, 0x0a, 0x02,
  0x0b, 0xfb, 0xfa, 0xf7, 0x0c, 0x05, 0xf5, 0x1e, 0xf2, 0x05, 0xe5, 0x05,
  0xfc, 0xf8, 0xe1, 0xfd, 0xfc, 0x0d, 0xdd, 0x0e, 0x09, 0x07, 0xf8, 0xe9,
  0x02, 0x18, 0xe9, 0x02, 0x10, 0x04, 0xfb, 0xf1, 0x06, 0x04, 0xf2, 0x07,
  0x02, 0x0d, 0xee, 0x01, 0xf9, 0x0f, 0xea, 0xf6, 0xf6, 0x08, 0xd7, 0xd4,
  0x0d, 0x13, 0xa2, 0xc7, 0xfa, 0x13, 0xbf, 0xdc, 0x04, 0x22, 0xd7, 0xfc,
  0x14, 0x1c, 0xd7, 0xfa, 0x0d, 0x26, 0xcd, 0xfa, 0xec, 0x0b, 0xc9, 0xf3,
  0x03, 0x1a, 0xc7, 0x0e, 0x0a, 0x12, 0xdd, 0xf5, 0xfe, 0x21, 0xcb, 0xcc,
  0x09, 0x02, 0x9d, 0xd5, 0xf5, 0x0d, 0xc5, 0xe8, 0x11, 0xe9, 0xcb, 0xdd,
  0xf2, 0xfe, 0xd6, 0x02, 0xf1, 0x16, 0xca, 0xf1, 0xec, 0x06, 0xe3, 0xf3,
  0xe6, 0x01, 0x0c, 0x17, 0xef, 0x14, 0xe2, 0xf3, 0xe9, 0x02, 0xf6, 0xf3,
  0xf4, 0xff, 0xd0, 0xf9, 0xfa, 0xfe, 0xe5, 0x0c, 0x1d, 0x14, 0x08, 0xf7,
  0x1f, 0x02, 0xe3, 0x14, 0x1f, 0x1f, 0x01, 0xfc, 0x40, 0xf9, 0xe3, 0x1c,
  0x0e, 0xfd, 0x17, 0x18, 0x20, 0x0b, 0x02, 0x25, 0x19, 0xee, 0x34, 0x1e,
  0x32, 0xf7, 0xf7, 0x29, 0x13, 0x06, 0x14, 0x26, 0x23, 0x04, 0x16, 0x1f,
  0x1f, 0xee, 0x2f, 0x1c, 0xf6, 0x0b, 0x13, 0x1c, 0x20, 0xfa, 0xcb, 0x09,
  0x1e, 0xf5, 0xf1, 0xe4, 0x2c, 0xfb, 0x09, 0x0a, 0x01, 0xf4, 0xbc, 0xf8,
  0x19, 0x05, 0x02, 0x03, 0xfd, 0xfb, 0x03, 0x0a, 0x20, 0xf9, 0x0d, 0x00,
  0xf8, 0xfe, 0xe9, 0xf7, 0xf7, 0xfc, 0xf7, 0x00, 0xd7, 0x00, 0xec, 0x0d,
  0xee, 0xf9, 0xfe, 0x11, 0xf6, 0xf5, 0xfe, 0xfb, 0x1d, 0xf2, 0xf0, 0x17,
  0xf3, 0xe9, 0xd6, 0xfc, 0x16, 0xfc, 0xff, 0x0e, 0xfe, 0x05, 0xe9, 0xe3,
  0xf9, 0x00, 0xfa, 0xeb, 0xe2, 0xec, 0xf7, 0x02, 0xf7, 0xf8, 0xf5, 0x19,
  0xf7, 0xf2, 0xeb, 0x01, 0xf7, 0xe0, 0xfd, 0x00, 0x12, 0xe9, 0xe2, 0xf5,
  0x18, 0xdf, 0xe9, 0xf8, 0x0a, 0x0b, 0xd7, 0x16, 0x09, 0xf3, 0xd8, 0xdc,
  0x0d, 0xff, 0xd2, 0xfd, 0x10, 0xe1, 0xe5, 0xe9, 0xe9, 0xec, 0x02, 0xfe,
  0x22, 0xed, 0xe8, 0xd7, 0x29, 0xf4, 0xf0, 0xfc, 0x1d, 0xfa, 0xe5, 0x02,
  0x23, 0xed, 0xc9, 0xd6, 0x1d, 0xfe, 0xcc, 0xef, 0xef, 0x17, 0xfa, 0x0d,
  0xfd, 0x11, 0xe9, 0x03, 0x10, 0x04, 0x03, 0x0f, 0x06, 0x07, 0x00, 0x0c,
  0x29, 0x0e, 0xe2, 0xfb, 0x03, 0x00, 0x0c, 0x01, 0x0f, 0x09, 0xfc, 0xfb,
  0xfa, 0xf4, 0x0a, 0x0d, 0xfb, 0xfd, 0xec, 0xfd, 0x0a, 0x08, 0x21, 0x27,
  0x12, 0x06, 0x20, 0xfb, 0xf6, 0x17, 0x15, 0x0d, 0xfb, 0x1a, 0x17, 0x08,
  0x0a, 0x37, 0x0e, 0xfe, 0x06, 0x21, 0x11, 0x02, 0xff, 0x17, 0x10, 0x09,
  0x0e, 0x14, 0x1b, 0x0c, 0x02, 0x0f, 0x13, 0x0a, 0x09, 0x03, 0xff, 0xfd,
  0x06, 0x02, 0x07, 0xdb, 0x02, 0x03, 0x03, 0x02, 0x0a, 0xf7, 0x0b, 0xe9,
  0xfe, 0xf6, 0x00, 0xe5, 0x32, 0x0f, 0xe8, 0xd3, 0x0c, 0x3c, 0x01, 0xf7,
  0x32, 0x41, 0x09, 0xf2, 0x1a, 0x01, 0xf8, 0xff, 0x0f, 0x22, 0xf2, 0x10,
  0x1c, 0x26, 0xf9, 0x10, 0x22, 0x15, 0x08, 0x11, 0xfe, 0x17, 0xfb, 0x17,
  0x06, 0xfa, 0x04, 0x04, 0xfc, 0xf3, 0xca, 0xfa, 0xc6, 0x08, 0x0d, 0xd2,
  0x13, 0x09, 0xc2, 0xd9, 0xd2, 0x0d, 0xc8, 0xaf, 0xe7, 0x1f, 0x81, 0x98,
  0xe1, 0x1b, 0xc9, 0xa9, 0xc5, 0x38, 0xb7, 0x88, 0xda, 0xfb, 0xd9, 0xa9,
  0xe4, 0xf7, 0xc6, 0xdd, 0xe8, 0x10, 0x10, 0xde, 0xd7, 0xfd, 0x33, 0xbd,
  0xe4, 0x05, 0x0d, 0xea, 0xeb, 0x04, 0xc9, 0xf1, 0xf9, 0xf8, 0xf1, 0xfa,
  0x0a, 0xfb, 0x0a, 0x08, 0x27, 0xfb, 0x0e, 0xf9, 0x01, 0x01, 0xe9, 0x0d,
  0xe5, 0xfa, 0xe0, 0x19, 0xce, 0xfd, 0xe9, 0xf7, 0xa7, 0xef, 0xf0, 0x14,
  0xa9, 0xfe, 0xd9, 0xa2, 0x9f, 0xf9, 0xf0, 0xb3, 0xff, 0x07, 0xb1, 0xc7,
  0xcd, 0x01, 0xba, 0x97, 0xd7, 0x06, 0xfa, 0xdc, 0xc3, 0x04, 0xff, 0x06,
  0xd4, 0x00, 0x0e, 0xa9, 0xef, 0xff, 0xb8, 0xbd, 0x04, 0xfc, 0xd2, 0xff,
  0xfa, 0x08, 0x10, 0xec, 0x0a, 0x01, 0xfa, 0xde, 0x04, 0xfc, 0xf5, 0xee,
  0x03, 0x06, 0x0b, 0x07, 0xed, 0x01, 0x16, 0x04, 0xde, 0xff, 0x0a, 0x12,
  0xef, 0xfa, 0x0d, 0xfb, 0xff, 0x05, 0xe9, 0xe3, 0xfb, 0x0a, 0xe0, 0xed,
  0xeb, 0x10, 0xfc, 0xfd, 0xce, 0xfc, 0xf8, 0x06, 0xbd, 0x0a, 0x05, 0x02,
  0xdf, 0x09, 0x01, 0x07, 0xf1, 0x16, 0x06, 0xf7, 0xed, 0x0a, 0x0d, 0xfd,
  0xff, 0x14, 0x0e, 0x06, 0xf7, 0x1c, 0xfd, 0x01, 0xf4, 0x11, 0x10, 0x0e,
  0x09, 0x14, 0x0b, 0x06, 0x0a, 0x20, 0x07, 0x1a, 0x08, 0x1b, 0x08, 0xfd,
  0x0f, 0x06, 0x0e, 0x07, 0x01, 0x19, 0x18, 0x1a, 0xda, 0x14, 0xda, 0xe7,
  0xfa, 0x21, 0xdc, 0xe2, 0xf5, 0x17, 0xcf, 0xe5, 0xee, 0xf9, 0xe1, 0xfe,
  0xfe, 0xfd, 0xf7, 0x10, 0xdf, 0xdd, 0x17, 0xe8, 0x10, 0xd8, 0x1a, 0xec,
  0x01, 0xbe, 0x06, 0xef, 0x0e, 0xb6, 0xf7, 0x13, 0xfe, 0xbf, 0x0a, 0x17,
  0x05, 0xf7, 0xf5, 0x23, 0x0a, 0xdc, 0x0a, 0x09, 0x01, 0xed, 0x13, 0x0d,
  0x20, 0xfd, 0x0a, 0x17, 0x1b, 0xc0, 0x01, 0x1e, 0xe7, 0xd0, 0x14, 0x2c,
  0x14, 0xd7, 0xee, 0x24, 0x0e, 0xff, 0x01, 0x27, 0x1a, 0xc2, 0x00, 0x19,
  0x02, 0xd4, 0x06, 0x07, 0x02, 0xd6, 0x00, 0x07, 0xfb, 0xd5, 0xf6, 0x20,
  0x14, 0xf9, 0x1f, 0x0b, 0xfa, 0xfa, 0x29, 0x1f, 0x0b, 0x05, 0x27, 0x34,
  0xe8, 0x1c, 0x0f, 0x19, 0xb1, 0xfe, 0x01, 0x20, 0xa8, 0x00, 0x24, 0x08,
  0xca, 0x0f, 0x11, 0x0f, 0xa3, 0xe6, 0xfe, 0x04, 0xc7, 0xf9, 0x2b, 0x1e,
  0xe3, 0x03, 0x05, 0x13, 0xf1, 0xe2, 0x15, 0x0c, 0xd4, 0xed, 0x1f, 0x0b,
  0xd3, 0x03, 0x13, 0x03, 0xd9, 0x09, 0xee, 0x01, 0xd1, 0x05, 0x2a, 0x10,
  0xfd, 0x09, 0xe6, 0x10, 0x0f, 0x02, 0xf8, 0x08, 0xfc, 0x11, 0x18, 0x0c,
  0xfc, 0xf2, 0x05, 0xfd, 0x06, 0x07, 0xf8, 0x0a, 0xff, 0xfb, 0xf7, 0x01,
  0x1e, 0xec, 0x04, 0x10, 0x0b, 0x17, 0x20, 0x07, 0x02, 0x21, 0x01, 0x0e,
  0x20, 0x1c, 0x0c, 0x18, 0x0e, 0x0d, 0x11, 0x02, 0xf9, 0x11, 0x05, 0x06,
  0x05, 0x04, 0x15, 0x19, 0x03, 0x11, 0x14, 0x09, 0xf0, 0x0a, 0x2b, 0x06,
  0xe9, 0x0c, 0x05, 0xcf, 0x06, 0x15, 0xec, 0xef, 0xd4, 0xf4, 0xe8, 0xfe,
  0xf3, 0x03, 0x05, 0xe0, 0xea, 0xfc, 0x0c, 0xdf, 0x0b, 0x0f, 0xfe, 0xe7,
  0x03, 0x11, 0xf9, 0x05, 0xee, 0x09, 0x08, 0x08, 0x00, 0x12, 0xf8, 0x07,
  0x03, 0xe5, 0x17, 0x07, 0x09, 0x15, 0xf3, 0x14, 0x04, 0xf9, 0x13, 0x0a,
  0x01, 0xed, 0x0f, 0x14, 0xfa, 0xe0, 0x13, 0xf8, 0xf0, 0xf8, 0x0c, 0xfd,
  0xff, 0xe2, 0x23, 0xf6, 0xf2, 0xe5, 0x09, 0xf5, 0x01, 0xeb, 0x0e, 0xfd,
  0xfe, 0xc6, 0x0b, 0xe4, 0x16, 0xd5, 0x01, 0x09, 0xe9, 0xbe, 0x0a, 0xf6,
  0xeb, 0xd6, 0x1c, 0x00, 0xf1, 0xbd, 0x1b, 0x04, 0xae, 0xfe, 0xff, 0xff,
  0x04, 0x00, 0x00, 0x00, 0x10, 0x00, 0x00, 0x00, 0xf1, 0xfe, 0xff, 0xff,
  0x67, 0xfa, 0xff, 0xff, 0xf2, 0x02, 0x00, 0x00, 0x9c, 0x02, 0x00, 0x00,
  0xca, 0xfe, 0xff, 0xff, 0x04, 0x00, 0x00, 0x00, 0x08, 0x00, 0x00, 0x00,
  0xff, 0xff, 0xff, 0xff, 0x2c, 0x01, 0x00, 0x00, 0xde, 0xfe, 0xff, 0xff,
  0x04, 0x00, 0x00, 0x00, 0x04, 0x00, 0x00, 0x00, 0x02, 0x00, 0x00, 0x00,
  0xee, 0xfe, 0xff, 0xff, 0x04, 0x00, 0x00, 0x00, 0x0c, 0x00, 0x00, 0x00,
  0xff, 0xff, 0xff, 0xff, 0x96, 0x00, 0x00, 0x00, 0x04, 0x00, 0x00, 0x00,
  0x06, 0xff, 0xff, 0xff, 0x04, 0x00, 0x00, 0x00, 0x0c, 0x00, 0x00, 0x00,
  0xff, 0xff, 0xff, 0xff, 0x96, 0x00, 0x00, 0x00, 0x08, 0x00, 0x00, 0x00,
  0x1e, 0xff, 0xff, 0xff, 0x04, 0x00, 0x00, 0x00, 0x04, 0x00, 0x00, 0x00,
  0xfd, 0xff, 0xff, 0xff, 0xbc, 0xea, 0xff, 0xff, 0xc0, 0xea, 0xff, 0xff,
  0x0f, 0x00, 0x00, 0x00, 0x4d, 0x4c, 0x49, 0x52, 0x20, 0x43, 0x6f, 0x6e,
  0x76, 0x65, 0x72, 0x74, 0x65, 0x64, 0x2e, 0x00, 0x01, 0x00, 0x00, 0x00,
  0x14, 0x00, 0x00, 0x00, 0x00, 0x00, 0x0e, 0x00, 0x18, 0x00, 0x14, 0x00,
  0x10, 0x00, 0x0c, 0x00, 0x08, 0x00, 0x04, 0x00, 0x0e, 0x00, 0x00, 0x00,
  0x14, 0x00, 0x00, 0x00, 0x1c, 0x00, 0x00, 0x00, 0x60, 0x03, 0x00, 0x00,
  0x64, 0x03, 0x00, 0x00, 0x68, 0x03, 0x00, 0x00, 0x04, 0x00, 0x00, 0x00,
  0x6d, 0x61, 0x69, 0x6e, 0x00, 0x00, 0x00, 0x00, 0x0f, 0x00, 0x00, 0x00,
  0x28, 0x03, 0x00, 0x00, 0xe8, 0x02, 0x00, 0x00, 0xa4, 0x02, 0x00, 0x00,
  0x70, 0x02, 0x00, 0x00, 0x20, 0x02, 0x00, 0x00, 0xf8, 0x01, 0x00, 0x00,
  0xb8, 0x01, 0x00, 0x00, 0x74, 0x01, 0x00, 0x00, 0x4c, 0x01, 0x00, 0x00,
  0x18, 0x01, 0x00, 0x00, 0xc4, 0x00, 0x00, 0x00, 0x9c, 0x00, 0x00, 0x00,
  0x64, 0x00, 0x00, 0x00, 0x28, 0x00, 0x00, 0x00, 0x04, 0x00, 0x00, 0x00,
  0x3a, 0xfe, 0xff, 0xff, 0x0c, 0x00, 0x00, 0x00, 0x10, 0x00, 0x00, 0x00,
  0x09, 0x00, 0x00, 0x00, 0x01, 0x00, 0x00, 0x00, 0x1c, 0x00, 0x00, 0x00,
  0x01, 0x00, 0x00, 0x00, 0x1b, 0x00, 0x00, 0x00, 0x7e, 0xfd, 0xff, 0xff,
  0x1c, 0x00, 0x00, 0x00, 0x00, 0x00, 0x00, 0x09, 0x1c, 0x00, 0x00, 0x00,
  0x20, 0x00, 0x00, 0x00, 0x08, 0x00, 0x00, 0x00, 0x00, 0x00, 0x06, 0x00,
  0x08, 0x00, 0x04, 0x00, 0x06, 0x00, 0x00, 0x00, 0x00, 0x00, 0x80, 0x3f,
  0x01, 0x00, 0x00, 0x00, 0x1b, 0x00, 0x00, 0x00, 0x01, 0x00, 0x00, 0x00,
  0x1a, 0x00, 0x00, 0x00, 0xb6, 0xfd, 0xff, 0xff, 0x14, 0x00, 0x00, 0x00,
  0x00, 0x00, 0x00, 0x08, 0x10, 0x00, 0x00, 0x00, 0x14, 0x00, 0x00, 0x00,
  0x07, 0x00, 0x00, 0x00, 0xc4, 0xeb, 0xff, 0xff, 0x01, 0x00, 0x00, 0x00,
  0x1a, 0x00, 0x00, 0x00, 0x03, 0x00, 0x00, 0x00, 0x19, 0x00, 0x00, 0x00,
  0x07, 0x00, 0x00, 0x00, 0x06, 0x00, 0x00, 0x00, 0xc6, 0xfe, 0xff, 0xff,
  0x0c, 0x00, 0x00, 0x00, 0x10, 0x00, 0x00, 0x00, 0x05, 0x00, 0x00, 0x00,
  0x01, 0x00, 0x00, 0x00, 0x19, 0x00, 0x00, 0x00, 0x02, 0x00, 0x00, 0x00,
  0x18, 0x00, 0x00, 0x00, 0x05, 0x00, 0x00, 0x00, 0x0e, 0xfe, 0xff, 0xff,
  0x24, 0x00, 0x00, 0x00, 0x00, 0x00, 0x00, 0x05, 0x34, 0x00, 0x00, 0x00,
  0x38, 0x00, 0x00, 0x00, 0x06, 0x00, 0x00, 0x00, 0x00, 0x00, 0x0e, 0x00,
  0x18, 0x00, 0x17, 0x00, 0x10, 0x00, 0x0c, 0x00, 0x08, 0x00, 0x04, 0x00,
  0x0e, 0x00, 0x00, 0x00, 0x02, 0x00, 0x00, 0x00, 0x01, 0x00, 0x00, 0x00,
  0x02, 0x00, 0x00, 0x00, 0x01, 0x00, 0x00, 0x00, 0x00, 0x00, 0x00, 0x01,
  0x01, 0x00, 0x00, 0x00, 0x18, 0x00, 0x00, 0x00, 0x01, 0x00, 0x00, 0x00,
  0x17, 0x00, 0x00, 0x00, 0x5e, 0xfe, 0xff, 0xff, 0x14, 0x00, 0x00, 0x00,
  0x00, 0x00, 0x00, 0x34, 0x10, 0x00, 0x00, 0x00, 0x14, 0x00, 0x00, 0x00,
  0x03, 0x00, 0x00, 0x00, 0x6c, 0xec, 0xff, 0xff, 0x01, 0x00, 0x00, 0x00,
  0x17, 0x00, 0x00, 0x00, 0x02, 0x00, 0x00, 0x00, 0x16, 0x00, 0x00, 0x00,
  0x04, 0x00, 0x00, 0x00, 0x6a, 0xff, 0xff, 0xff, 0x0c, 0x00, 0x00, 0x00,
  0x10, 0x00, 0x00, 0x00, 0x05, 0x00, 0x00, 0x00, 0x01, 0x00, 0x00, 0x00,
  0x16, 0x00, 0x00, 0x00, 0x02, 0x00, 0x00, 0x00, 0x15, 0x00, 0x00, 0x00,
  0x03, 0x00, 0x00, 0x00, 0xb2, 0xfe, 0xff, 0xff, 0x14, 0x00, 0x00, 0x00,
  0x00, 0x00, 0x00, 0x01, 0x1c, 0x00, 0x00, 0x00, 0x20, 0x00, 0x00, 0x00,
  0x04, 0x00, 0x00, 0x00, 0x60, 0xff, 0xff, 0xff, 0x00, 0x00, 0x00, 0x01,
  0x01, 0x00, 0x00, 0x00, 0x01, 0x00, 0x00, 0x00, 0x01, 0x00, 0x00, 0x00,
  0x15, 0x00, 0x00, 0x00, 0x03, 0x00, 0x00, 0x00, 0x14, 0x00, 0x00, 0x00,
  0x09, 0x00, 0x00, 0x00, 0x08, 0x00, 0x00, 0x00, 0xf2, 0xfe, 0xff, 0xff,
  0x14, 0x00, 0x00, 0x00, 0x00, 0x00, 0x00, 0x34, 0x10, 0x00, 0x00, 0x00,
  0x14, 0x00, 0x00, 0x00, 0x03, 0x00, 0x00, 0x00, 0x00, 0xed, 0xff, 0xff,
  0x01, 0x00, 0x00, 0x00, 0x14, 0x00, 0x00, 0x00, 0x02, 0x00, 0x00, 0x00,
  0x13, 0x00, 0x00, 0x00, 0x01, 0x00, 0x00, 0x00, 0x00, 0x00, 0x0a, 0x00,
  0x10, 0x00, 0x0c, 0x00, 0x08, 0x00, 0x04, 0x00, 0x0a, 0x00, 0x00, 0x00,
  0x0c, 0x00, 0x00, 0x00, 0x10, 0x00, 0x00, 0x00, 0x05, 0x00, 0x00, 0x00,
  0x01, 0x00, 0x00, 0x00, 0x13, 0x00, 0x00, 0x00, 0x02, 0x00, 0x00, 0x00,
  0x12, 0x00, 0x00, 0x00, 0x02, 0x00, 0x00, 0x00, 0x52, 0xff, 0xff, 0xff,
  0x20, 0x00, 0x00, 0x00, 0x00, 0x00, 0x00, 0x01, 0x28, 0x00, 0x00, 0x00,
  0x2c, 0x00, 0x00, 0x00, 0x04, 0x00, 0x00, 0x00, 0x0c, 0x00, 0x10, 0x00,
  0x00, 0x00, 0x0c, 0x00, 0x08, 0x00, 0x07, 0x00, 0x0c, 0x00, 0x00, 0x00,
  0x00, 0x00, 0x00, 0x01, 0x01, 0x00, 0x00, 0x00, 0x02, 0x00, 0x00, 0x00,
  0x01, 0x00, 0x00, 0x00, 0x12, 0x00, 0x00, 0x00, 0x03, 0x00, 0x00, 0x00,
  0x11, 0x00, 0x00, 0x00, 0x0b, 0x00, 0x00, 0x00, 0x0a, 0x00, 0x00, 0x00,
  0x9e, 0xff, 0xff, 0xff, 0x14, 0x00, 0x00, 0x00, 0x00, 0x00, 0x00, 0x34,
  0x10, 0x00, 0x00, 0x00, 0x14, 0x00, 0x00, 0x00, 0x03, 0x00, 0x00, 0x00,
  0xac, 0xed, 0xff, 0xff, 0x01, 0x00, 0x00, 0x00, 0x11, 0x00, 0x00, 0x00,
  0x02, 0x00, 0x00, 0x00, 0x10, 0x00, 0x00, 0x00, 0x01, 0x00, 0x00, 0x00,
  0xce, 0xff, 0xff, 0xff, 0x14, 0x00, 0x00, 0x00, 0x00, 0x00, 0x00, 0x15,
  0x10, 0x00, 0x00, 0x00, 0x14, 0x00, 0x00, 0x00, 0x02, 0x00, 0x00, 0x00,
  0xdc, 0xed, 0xff, 0xff, 0x01, 0x00, 0x00, 0x00, 0x10, 0x00, 0x00, 0x00,
  0x02, 0x00, 0x00, 0x00, 0x0f, 0x00, 0x00, 0x00, 0x0c, 0x00, 0x00, 0x00,
  0x00, 0x00, 0x0e, 0x00, 0x18, 0x00, 0x14, 0x00, 0x10, 0x00, 0x0c, 0x00,
  0x0b, 0x00, 0x04, 0x00, 0x0e, 0x00, 0x00, 0x00, 0x14, 0x00, 0x00, 0x00,
  0x00, 0x00, 0x00, 0x1c, 0x10, 0x00, 0x00, 0x00, 0x14, 0x00, 0x00, 0x00,
  0x01, 0x00, 0x00, 0x00, 0x1c, 0xee, 0xff, 0xff, 0x01, 0x00, 0x00, 0x00,
  0x0f, 0x00, 0x00, 0x00, 0x02, 0x00, 0x00, 0x00, 0x0e, 0x00, 0x00, 0x00,
  0x0d, 0x00, 0x00, 0x00, 0x00, 0x00, 0x0a, 0x00, 0x0c, 0x00, 0x00, 0x00,
  0x08, 0x00, 0x04, 0x00, 0x0a, 0x00, 0x00, 0x00, 0x08, 0x00, 0x00, 0x00,
  0x0c, 0x00, 0x00, 0x00, 0x01, 0x00, 0x00, 0x00, 0x0e, 0x00, 0x00, 0x00,
  0x01, 0x00, 0x00, 0x00, 0x00, 0x00, 0x00, 0x00, 0x01, 0x00, 0x00, 0x00,
  0x1c, 0x00, 0x00, 0x00, 0x01, 0x00, 0x00, 0x00, 0x00, 0x00, 0x00, 0x00,
  0x1d, 0x00, 0x00, 0x00, 0x64, 0x11, 0x00, 0x00, 0xf0, 0x10, 0x00, 0x00,
  0x80, 0x10, 0x00, 0x00, 0x28, 0x10, 0x00, 0x00, 0xcc, 0x0f, 0x00, 0x00,
  0x7c, 0x0f, 0x00, 0x00, 0xf0, 0x0e, 0x00, 0x00, 0x80, 0x0e, 0x00, 0x00,
  0xdc, 0x0d, 0x00, 0x00, 0x40, 0x0d, 0x00, 0x00, 0x6c, 0x0c, 0x00, 0x00,
  0xa0, 0x0b, 0x00, 0x00, 0x04, 0x0b, 0x00, 0x00, 0x90, 0x0a, 0x00, 0x00,
  0x18, 0x0a, 0x00, 0x00, 0x74, 0x09, 0x00, 0x00, 0xc0, 0x08, 0x00, 0x00,
  0x20, 0x08, 0x00, 0x00, 0xfc, 0x06, 0x00, 0x00, 0x04, 0x06, 0x00, 0x00,
  0x64, 0x05, 0x00, 0x00, 0x38, 0x04, 0x00, 0x00, 0x38, 0x03, 0x00, 0x00,
  0x98, 0x02, 0x00, 0x00, 0xfc, 0x01, 0x00, 0x00, 0x78, 0x01, 0x00, 0x00,
  0xdc, 0x00, 0x00, 0x00, 0x60, 0x00, 0x00, 0x00, 0x04, 0x00, 0x00, 0x00,
  0x26, 0xef, 0xff, 0xff, 0x00, 0x00, 0x00, 0x01, 0x14, 0x00, 0x00, 0x00,
  0x1c, 0x00, 0x00, 0x00, 0x1c, 0x00, 0x00, 0x00, 0x1d, 0x00, 0x00, 0x00,
  0x34, 0x00, 0x00, 0x00, 0x02, 0x00, 0x00, 0x00, 0xff, 0xff, 0xff, 0xff,
  0x04, 0x00, 0x00, 0x00, 0x0c, 0xef, 0xff, 0xff, 0x19, 0x00, 0x00, 0x00,
  0x53, 0x74, 0x61, 0x74, 0x65, 0x66, 0x75, 0x6c, 0x50, 0x61, 0x72, 0x74,
  0x69, 0x74, 0x69, 0x6f, 0x6e, 0x65, 0x64, 0x43, 0x61, 0x6c, 0x6c, 0x3a,
  0x30, 0x00, 0x00, 0x00, 0x02, 0x00, 0x00, 0x00, 0x01, 0x00, 0x00, 0x00,
  0x04, 0x00, 0x00, 0x00, 0x92, 0xf6, 0xff, 0xff, 0x00, 0x00, 0x00, 0x01,
  0x18, 0x00, 0x00, 0x00, 0x20, 0x00, 0x00, 0x00, 0x3c, 0x00, 0x00, 0x00,
  0x1c, 0x00, 0x00, 0x00, 0x00, 0x00, 0x00, 0x09, 0x50, 0x00, 0x00, 0x00,
  0x02, 0x00, 0x00, 0x00, 0xff, 0xff, 0xff, 0xff, 0x04, 0x00, 0x00, 0x00,
  0xd4, 0xf1, 0xff, 0xff, 0x08, 0x00, 0x00, 0x00, 0x10, 0x00, 0x00, 0x00,
  0x01, 0x00, 0x00, 0x00, 0x80, 0xff, 0xff, 0xff, 0xff, 0xff, 0xff, 0xff,
  0x01, 0x00, 0x00, 0x00, 0x00, 0x00, 0x80, 0x3b, 0x1a, 0x00, 0x00, 0x00,
  0x53, 0x74, 0x61, 0x74, 0x65, 0x66, 0x75, 0x6c, 0x50, 0x61, 0x72, 0x74,
  0x69, 0x74, 0x69, 0x6f, 0x6e, 0x65, 0x64, 0x43, 0x61, 0x6c, 0x6c, 0x3a,
  0x30, 0x31, 0x00, 0x00, 0x02, 0x00, 0x00, 0x00, 0x01, 0x00, 0x00, 0x00,
  0x04, 0x00, 0x00, 0x00, 0x0a, 0xf7, 0xff, 0xff, 0x00, 0x00, 0x00, 0x01,
  0x18, 0x00, 0x00, 0x00, 0x20, 0x00, 0x00, 0x00, 0x3c, 0x00, 0x00, 0x00,
  0x1b, 0x00, 0x00, 0x00, 0x00, 0x00, 0x00, 0x09, 0x70, 0x00, 0x00, 0x00,
  0x02, 0x00, 0x00, 0x00, 0xff, 0xff, 0xff, 0xff, 0x04, 0x00, 0x00, 0x00,
  0x4c, 0xf2, 0xff, 0xff, 0x08, 0x00, 0x00, 0x00, 0x10, 0x00, 0x00, 0x00,
  0x01, 0x00, 0x00, 0x00, 0x1d, 0x00, 0x00, 0x00, 0x00, 0x00, 0x00, 0x00,
  0x01, 0x00, 0x00, 0x00, 0x4c, 0x88, 0xef, 0x3e, 0x3a, 0x00, 0x00, 0x00,
  0x69, 0x6d, 0x75, 0x5f, 0x6d, 0x6f, 0x64, 0x65, 0x6c, 0x5f, 0x73, 0x6d,
  0x61, 0x6c, 0x6c, 0x2f, 0x64, 0x65, 0x6e, 0x73, 0x65, 0x2f, 0x4d, 0x61,
  0x74, 0x4d, 0x75, 0x6c, 0x3b, 0x69, 0x6d, 0x75, 0x5f, 0x6d, 0x6f, 0x64,
  0x65, 0x6c, 0x5f, 0x73, 0x6d, 0x61, 0x6c, 0x6c, 0x2f, 0x64, 0x65, 0x6e,
  0x73, 0x65, 0x2f, 0x42, 0x69, 0x61, 0x73, 0x41, 0x64, 0x64, 0x00, 0x00,
  0x02, 0x00, 0x00, 0x00, 0x01, 0x00, 0x00, 0x00, 0x04, 0x00, 0x00, 0x00,
  0xa2, 0xf7, 0xff, 0xff, 0x00, 0x00, 0x00, 0x01, 0x18, 0x00, 0x00, 0x00,
  0x20, 0x00, 0x00, 0x00, 0x40, 0x00, 0x00, 0x00, 0x1a, 0x00, 0x00, 0x00,
  0x00, 0x00, 0x00, 0x09, 0x58, 0x00, 0x00, 0x00, 0x02, 0x00, 0x00, 0x00,
  0xff, 0xff, 0xff, 0xff, 0x2c, 0x01, 0x00, 0x00, 0xe4, 0xf2, 0xff, 0xff,
  0x08, 0x00, 0x00, 0x00, 0x14, 0x00, 0x00, 0x00, 0x01, 0x00, 0x00, 0x00,
  0x80, 0xff, 0xff, 0xff, 0xff, 0xff, 0xff, 0xff, 0x00, 0x00, 0x00, 0x00,
  0x01, 0x00, 0x00, 0x00, 0xc8, 0xa2, 0xa0, 0x3d, 0x1f, 0x00, 0x00, 0x00,
  0x69, 0x6d, 0x75, 0x5f, 0x6d, 0x6f, 0x64, 0x65, 0x6c, 0x5f, 0x73, 0x6d,
  0x61, 0x6c, 0x6c, 0x2f, 0x66, 0x6c, 0x61, 0x74, 0x74, 0x65, 0x6e, 0x2f,
  0x52, 0x65, 0x73, 0x68, 0x61, 0x70, 0x65, 0x00, 0x02, 0x00, 0x00, 0x00,
  0x01, 0x00, 0x00, 0x00, 0x2c, 0x01, 0x00, 0x00, 0x22, 0xf8, 0xff, 0xff,
  0x00, 0x00, 0x00, 0x01, 0x18, 0x00, 0x00, 0x00, 0x28, 0x00, 0x00, 0x00,
  0x48, 0x00, 0x00, 0x00, 0x19, 0x00, 0x00, 0x00, 0x00, 0x00, 0x00, 0x09,
  0x68, 0x00, 0x00, 0x00, 0x04, 0x00, 0x00, 0x00, 0xff, 0xff, 0xff, 0xff,
  0x4b, 0x00, 0x00, 0x00, 0x01, 0x00, 0x00, 0x00, 0x04, 0x00, 0x00, 0x00,
  0x6c, 0xf3, 0xff, 0xff, 0x08, 0x00, 0x00, 0x00, 0x14, 0x00, 0x00, 0x00,
  0x01, 0x00, 0x00, 0x00, 0x80, 0xff, 0xff, 0xff, 0xff, 0xff, 0xff, 0xff,
  0x00, 0x00, 0x00, 0x00, 0x01, 0x00, 0x00, 0x00, 0xc8, 0xa2, 0xa0, 0x3d,
  0x25, 0x00, 0x00, 0x00, 0x69, 0x6d, 0x75, 0x5f, 0x6d, 0x6f, 0x64, 0x65,
  0x6c, 0x5f, 0x73, 0x6d, 0x61, 0x6c, 0x6c, 0x2f, 0x6d, 0x61, 0x78, 0x5f,
  0x70, 0x6f, 0x6f, 0x6c, 0x69, 0x6e, 0x67, 0x31, 0x64, 0x2f, 0x4d, 0x61,
  0x78, 0x50, 0x6f, 0x6f, 0x6c, 0x00, 0x00, 0x00, 0x04, 0x00, 0x00, 0x00,
  0x01, 0x00, 0x00, 0x00, 0x4b, 0x00, 0x00, 0x00, 0x01, 0x00, 0x00, 0x00,
  0x04, 0x00, 0x00, 0x00, 0xba, 0xf8, 0xff, 0xff, 0x00, 0x00, 0x00, 0x01,
  0x18, 0x00, 0x00, 0x00, 0x28, 0x00, 0x00, 0x00, 0x48, 0x00, 0x00, 0x00,
  0x18, 0x00, 0x00, 0x00, 0x00, 0x00, 0x00, 0x09, 0x6c, 0x00, 0x00, 0x00,
  0x04, 0x00, 0x00, 0x00, 0xff, 0xff, 0xff, 0xff, 0x96, 0x00, 0x00, 0x00,
  0x01, 0x00, 0x00, 0x00, 0x04, 0x00, 0x00, 0x00, 0x04, 0xf4, 0xff, 0xff,
  0x08, 0x00, 0x00, 0x00, 0x14, 0x00, 0x00, 0x00, 0x01, 0x00, 0x00, 0x00,
  0x80, 0xff, 0xff, 0xff, 0xff, 0xff, 0xff, 0xff, 0x00, 0x00, 0x00, 0x00,
  0x01, 0x00, 0x00, 0x00, 0xc8, 0xa2, 0xa0, 0x3d, 0x28, 0x00, 0x00, 0x00,
  0x69, 0x6d, 0x75, 0x5f, 0x6d, 0x6f, 0x64, 0x65, 0x6c, 0x5f, 0x73, 0x6d,
  0x61, 0x6c, 0x6c, 0x2f, 0x6d, 0x61, 0x78, 0x5f, 0x70, 0x6f, 0x6f, 0x6c,
  0x69, 0x6e, 0x67, 0x31, 0x64, 0x2f, 0x45, 0x78, 0x70, 0x61, 0x6e, 0x64,
  0x44, 0x69, 0x6d, 0x73, 0x00, 0x00, 0x00, 0x00, 0x04, 0x00, 0x00, 0x00,
  0x01, 0x00, 0x00, 0x00, 0x96, 0x00, 0x00, 0x00, 0x01, 0x00, 0x00, 0x00,
  0x04, 0x00, 0x00, 0x00, 0x56, 0xf9, 0xff, 0xff, 0x00, 0x00, 0x00, 0x01,
  0x18, 0x00, 0x00, 0x00, 0x24, 0x00, 0x00, 0x00, 0x40, 0x00, 0x00, 0x00,
  0x17, 0x00, 0x00, 0x00, 0x00, 0x00, 0x00, 0x09, 0xd0, 0x00, 0x00, 0x00,
  0x03, 0x00, 0x00, 0x00, 0xff, 0xff, 0xff, 0xff, 0x96, 0x00, 0x00, 0x00,
  0x04, 0x00, 0x00, 0x00, 0x9c, 0xf4, 0xff, 0xff, 0x08, 0x00, 0x00, 0x00,
  0x10, 0x00, 0x00, 0x00, 0x01, 0x00, 0x00, 0x00, 0x80, 0xff, 0xff, 0xff,
  0xff, 0xff, 0xff, 0xff, 0x01, 0x00, 0x00, 0x00, 0xc8, 0xa2, 0xa0, 0x3d,
  0x96, 0x00, 0x00, 0x00, 0x69, 0x6d, 0x75, 0x5f, 0x6d, 0x6f, 0x64, 0x65,
  0x6c, 0x5f, 0x73, 0x6d, 0x61, 0x6c, 0x6c, 0x2f, 0x63, 0x6f, 0x6e, 0x76,
  0x31, 0x64, 0x5f, 0x31, 0x2f, 0x52, 0x65, 0x6c, 0x75, 0x3b, 0x69, 0x6d,
  0x75, 0x5f, 0x6d, 0x6f, 0x64, 0x65, 0x6c, 0x5f, 0x73, 0x6d, 0x61, 0x6c,
  0x6c, 0x2f, 0x63, 0x6f, 0x6e, 0x76, 0x31, 0x64, 0x5f, 0x31, 0x2f, 0x42,
  0x69, 0x61, 0x73, 0x41, 0x64, 0x64, 0x3b, 0x69, 0x6d, 0x75, 0x5f, 0x6d,
  0x6f, 0x64, 0x65, 0x6c, 0x5f, 0x73, 0x6d, 0x61, 0x6c, 0x6c, 0x2f, 0x63,
  0x6f, 0x6e, 0x76, 0x31, 0x64, 0x5f, 0x31, 0x2f, 0x43, 0x6f, 0x6e, 0x76,
  0x31, 0x44, 0x2f, 0x53, 0x71, 0x75, 0x65, 0x65, 0x7a, 0x65, 0x3b, 0x69,
  0x6d, 0x75, 0x5f, 0x6d, 0x6f, 0x64, 0x65, 0x6c, 0x5f, 0x73, 0x6d, 0x61,
  0x6c, 0x6c, 0x2f, 0x63, 0x6f, 0x6e, 0x76, 0x31, 0x64, 0x5f, 0x31, 0x2f,
  0x42, 0x69, 0x61, 0x73, 0x41, 0x64, 0x64, 0x2f, 0x52, 0x65, 0x61, 0x64,
  0x56, 0x61, 0x72, 0x69, 0x61, 0x62, 0x6c, 0x65, 0x4f, 0x70, 0x00, 0x00,
  0x03, 0x00, 0x00, 0x00, 0x01, 0x00, 0x00, 0x00, 0x96, 0x00, 0x00, 0x00,
  0x04, 0x00, 0x00, 0x00, 0x52, 0xfa, 0xff, 0xff, 0x00, 0x00, 0x00, 0x01,
  0x18, 0x00, 0x00, 0x00, 0x28, 0x00, 0x00, 0x00, 0x48, 0x00, 0x00, 0x00,
  0x16, 0x00, 0x00, 0x00, 0x00, 0x00, 0x00, 0x09, 0xf8, 0x00, 0x00, 0x00,
  0x04, 0x00, 0x00, 0x00, 0xff, 0xff, 0xff, 0xff, 0x01, 0x00, 0x00, 0x00,
  0x96, 0x00, 0x00, 0x00, 0x04, 0x00, 0x00, 0x00, 0x9c, 0xf5, 0xff, 0xff,
  0x08, 0x00, 0x00, 0x00, 0x14, 0x00, 0x00, 0x00, 0x01, 0x00, 0x00, 0x00,
  0x80, 0xff, 0xff, 0xff, 0xff, 0xff, 0xff, 0xff, 0x00, 0x00, 0x00, 0x00,
  0x01, 0x00, 0x00, 0x00, 0xc8, 0xa2, 0xa0, 0x3d, 0xb6, 0x00, 0x00, 0x00,
  0x69, 0x6d, 0x75, 0x5f, 0x6d, 0x6f, 0x64, 0x65, 0x6c, 0x5f, 0x73, 0x6d,
  0x61, 0x6c, 0x6c, 0x2f, 0x63, 0x6f, 0x6e, 0x76, 0x31, 0x64, 0x5f, 0x31,
  0x2f, 0x52, 0x65, 0x6c, 0x75, 0x3b, 0x69, 0x6d, 0x75, 0x5f, 0x6d, 0x6f,
  0x64, 0x65, 0x6c, 0x5f, 0x73, 0x6d, 0x61, 0x6c, 0x6c, 0x2f, 0x63, 0x6f,
  0x6e, 0x76, 0x31, 0x64, 0x5f, 0x31, 0x2f, 0x42, 0x69, 0x61, 0x73, 0x41,
  0x64, 0x64, 0x3b, 0x69, 0x6d, 0x75, 0x5f, 0x6d, 0x6f, 0x64, 0x65, 0x6c,
  0x5f, 0x73, 0x6d, 0x61, 0x6c, 0x6c, 0x2f, 0x63, 0x6f, 0x6e, 0x76, 0x31,
  0x64, 0x5f, 0x31, 0x2f, 0x43, 0x6f, 0x6e, 0x76, 0x31, 0x44, 0x2f, 0x53,
  0x71, 0x75, 0x65, 0x65, 0x7a, 0x65, 0x3b, 0x69, 0x6d, 0x75, 0x5f, 0x6d,
  0x6f, 0x64, 0x65, 0x6c, 0x5f, 0x73, 0x6d, 0x61, 0x6c, 0x6c, 0x2f, 0x63,
  0x6f, 0x6e, 0x76, 0x31, 0x64, 0x5f, 0x31, 0x2f, 0x42, 0x69, 0x61, 0x73,
  0x41, 0x64, 0x64, 0x2f, 0x52, 0x65, 0x61, 0x64, 0x56, 0x61, 0x72, 0x69,
  0x61, 0x62, 0x6c, 0x65, 0x4f, 0x70, 0x3b, 0x69, 0x6d, 0x75, 0x5f, 0x6d,
  0x6f, 0x64, 0x65, 0x6c, 0x5f, 0x73, 0x6d, 0x61, 0x6c, 0x6c, 0x2f, 0x63,
  0x6f, 0x6e, 0x76, 0x31, 0x64, 0x5f, 0x31, 0x2f, 0x43, 0x6f, 0x6e, 0x76,
  0x31, 0x44, 0x00, 0x00, 0x04, 0x00, 0x00, 0x00, 0x01, 0x00, 0x00, 0x00,
  0x01, 0x00, 0x00, 0x00, 0x96, 0x00, 0x00, 0x00, 0x04, 0x00, 0x00, 0x00,
  0x7a, 0xfb, 0xff, 0xff, 0x00, 0x00, 0x00, 0x01, 0x18, 0x00, 0x00, 0x00,
  0x28, 0x00, 0x00, 0x00, 0x48, 0x00, 0x00, 0x00, 0x15, 0x00, 0x00, 0x00,
  0x00, 0x00, 0x00, 0x09, 0x6c, 0x00, 0x00, 0x00, 0x04, 0x00, 0x00, 0x00,
  0xff, 0xff, 0xff, 0xff, 0x01, 0x00, 0x00, 0x00, 0x96, 0x00, 0x00, 0x00,
  0x08, 0x00, 0x00, 0x00, 0xc4, 0xf6, 0xff, 0xff, 0x08, 0x00, 0x00, 0x00,
  0x14, 0x00, 0x00, 0x00, 0x01, 0x00, 0x00, 0x00, 0x80, 0xff, 0xff, 0xff,
  0xff, 0xff, 0xff, 0xff, 0x00, 0x00, 0x00, 0x00, 0x01, 0x00, 0x00, 0x00,
  0x6b, 0x4b, 0x12, 0x3d, 0x2a, 0x00, 0x00, 0x00, 0x69, 0x6d, 0x75, 0x5f,
  0x6d, 0x6f, 0x64, 0x65, 0x6c, 0x5f, 0x73, 0x6d, 0x61, 0x6c, 0x6c, 0x2f,
  0x63, 0x6f, 0x6e, 0x76, 0x31, 0x64, 0x5f, 0x31, 0x2f, 0x43, 0x6f, 0x6e,
  0x76, 0x31, 0x44, 0x2f, 0x45, 0x78, 0x70, 0x61, 0x6e, 0x64, 0x44, 0x69,
  0x6d, 0x73, 0x00, 0x00, 0x04, 0x00, 0x00, 0x00, 0x01, 0x00, 0x00, 0x00,
  0x01, 0x00, 0x00, 0x00, 0x96, 0x00, 0x00, 0x00, 0x08, 0x00, 0x00, 0x00,
  0x16, 0xfc, 0xff, 0xff, 0x00, 0x00, 0x00, 0x01, 0x18, 0x00, 0x00, 0x00,
  0x24, 0x00, 0x00, 0x00, 0x40, 0x00, 0x00, 0x00, 0x14, 0x00, 0x00, 0x00,
  0x00, 0x00, 0x00, 0x09, 0xc8, 0x00, 0x00, 0x00, 0x03, 0x00, 0x00, 0x00,
  0xff, 0xff, 0xff, 0xff, 0x96, 0x00, 0x00, 0x00, 0x08, 0x00, 0x00, 0x00,
  0x5c, 0xf7, 0xff, 0xff, 0x08, 0x00, 0x00, 0x00, 0x10, 0x00, 0x00, 0x00,
  0x01, 0x00, 0x00, 0x00, 0x80, 0xff, 0xff, 0xff, 0xff, 0xff, 0xff, 0xff,
  0x01, 0x00, 0x00, 0x00, 0x6b, 0x4b, 0x12, 0x3d, 0x8e, 0x00, 0x00, 0x00,
  0x69, 0x6d, 0x75, 0x5f, 0x6d, 0x6f, 0x64, 0x65, 0x6c, 0x5f, 0x73, 0x6d,
  0x61, 0x6c, 0x6c, 0x2f, 0x63, 0x6f, 0x6e, 0x76, 0x31, 0x64, 0x2f, 0x52,
  0x65, 0x6c, 0x75, 0x3b, 0x69, 0x6d, 0x75, 0x5f, 0x6d, 0x6f, 0x64, 0x65,
  0x6c, 0x5f, 0x73, 0x6d, 0x61, 0x6c, 0x6c, 0x2f, 0x63, 0x6f, 0x6e, 0x76,
  0x31, 0x64, 0x2f, 0x42, 0x69, 0x61, 0x73, 0x41, 0x64, 0x64, 0x3b, 0x69,
  0x6d, 0x75, 0x5f, 0x6d, 0x6f, 0x64, 0x65, 0x6c, 0x5f, 0x73, 0x6d, 0x61,
  0x6c, 0x6c, 0x2f, 0x63, 0x6f, 0x6e, 0x76, 0x31, 0x64, 0x2f, 0x43, 0x6f,
  0x6e, 0x76, 0x31, 0x44, 0x2f, 0x53, 0x71, 0x75, 0x65, 0x65, 0x7a, 0x65,
  0x3b, 0x69, 0x6d, 0x75, 0x5f, 0x6d, 0x6f, 0x64, 0x65, 0x6c, 0x5f, 0x73,
  0x6d, 0x61, 0x6c, 0x6c, 0x2f, 0x63, 0x6f, 0x6e, 0x76, 0x31, 0x64, 0x2f,
  0x42, 0x69, 0x61, 0x73, 0x41, 0x64, 0x64, 0x2f, 0x52, 0x65, 0x61, 0x64,
  0x56, 0x61, 0x72, 0x69, 0x61, 0x62, 0x6c, 0x65, 0x4f, 0x70, 0x00, 0x00,
  0x03, 0x00, 0x00, 0x00, 0x01, 0x00, 0x00, 0x00, 0x96, 0x00, 0x00, 0x00,
  0x08, 0x00, 0x00, 0x00, 0x0a, 0xfd, 0xff, 0xff, 0x00, 0x00, 0x00, 0x01,
  0x18, 0x00, 0x00, 0x00, 0x28, 0x00, 0x00, 0x00, 0x48, 0x00, 0x00, 0x00,
  0x13, 0x00, 0x00, 0x00, 0x00, 0x00, 0x00, 0x09, 0xf0, 0x00, 0x00, 0x00,
  0x04, 0x00, 0x00, 0x00, 0xff, 0xff, 0xff, 0xff, 0x01, 0x00, 0x00, 0x00,
  0x96, 0x00, 0x00, 0x00, 0x08, 0x00, 0x00, 0x00, 0x54, 0xf8, 0xff, 0xff,
  0x08, 0x00, 0x00, 0x00, 0x14, 0x00, 0x00, 0x00, 0x01, 0x00, 0x00, 0x00,
  0x80, 0xff, 0xff, 0xff, 0xff, 0xff, 0xff, 0xff, 0x00, 0x00, 0x00, 0x00,
  0x01, 0x00, 0x00, 0x00, 0x6b, 0x4b, 0x12, 0x3d, 0xac, 0x00, 0x00, 0x00,
  0x69, 0x6d, 0x75, 0x5f, 0x6d, 0x6f, 0x64, 0x65, 0x6c, 0x5f, 0x73, 0x6d,
  0x61, 0x6c, 0x6c, 0x2f, 0x63, 0x6f, 0x6e, 0x76, 0x31, 0x64, 0x2f, 0x52,
  0x65, 0x6c, 0x75, 0x3b, 0x69, 0x6d, 0x75, 0x5f, 0x6d, 0x6f, 0x64, 0x65,
  0x6c, 0x5f, 0x73, 0x6d, 0x61, 0x6c, 0x6c, 0x2f, 0x63, 0x6f, 0x6e, 0x76,
  0x31, 0x64, 0x2f, 0x42, 0x69, 0x61, 0x73, 0x41, 0x64, 0x64, 0x3b, 0x69,
  0x6d, 0x75, 0x5f, 0x6d, 0x6f, 0x64, 0x65, 0x6c, 0x5f, 0x73, 0x6d, 0x61,
  0x6c, 0x6c, 0x2f, 0x63, 0x6f, 0x6e, 0x76, 0x31, 0x64, 0x2f, 0x43, 0x6f,
  0x6e, 0x76, 0x31, 0x44, 0x2f, 0x53, 0x71, 0x75, 0x65, 0x65, 0x7a, 0x65,
  0x3b, 0x69, 0x6d, 0x75, 0x5f, 0x6d, 0x6f, 0x64, 0x65, 0x6c, 0x5f, 0x73,
  0x6d, 0x61, 0x6c, 0x6c, 0x2f, 0x63, 0x6f, 0x6e, 0x76, 0x31, 0x64, 0x2f,
  0x42, 0x69, 0x61, 0x73, 0x41, 0x64, 0x64, 0x2f, 0x52, 0x65, 0x61, 0x64,
  0x56, 0x61, 0x72, 0x69, 0x61, 0x62, 0x6c, 0x65, 0x4f, 0x70, 0x3b, 0x69,
  0x6d, 0x75, 0x5f, 0x6d, 0x6f, 0x64, 0x65, 0x6c, 0x5f, 0x73, 0x6d, 0x61,
  0x6c, 0x6c, 0x2f, 0x63, 0x6f, 0x6e, 0x76, 0x31, 0x64, 0x2f, 0x43, 0x6f,
  0x6e, 0x76, 0x31, 0x44, 0x00, 0x00, 0x00, 0x00, 0x04, 0x00, 0x00, 0x00,
  0x01, 0x00, 0x00, 0x00, 0x01, 0x00, 0x00, 0x00, 0x96, 0x00, 0x00, 0x00,
  0x08, 0x00, 0x00, 0x00, 0x2a, 0xfe, 0xff, 0xff, 0x00, 0x00, 0x00, 0x01,
  0x18, 0x00, 0x00, 0x00, 0x28, 0x00, 0x00, 0x00, 0x48, 0x00, 0x00, 0x00,
  0x12, 0x00, 0x00, 0x00, 0x00, 0x00, 0x00, 0x09, 0x6c, 0x00, 0x00, 0x00,
  0x04, 0x00, 0x00, 0x00, 0xff, 0xff, 0xff, 0xff, 0x01, 0x00, 0x00, 0x00,
  0x2c, 0x01, 0x00, 0x00, 0x06, 0x00, 0x00, 0x00, 0x74, 0xf9, 0xff, 0xff,
  0x08, 0x00, 0x00, 0x00, 0x14, 0x00, 0x00, 0x00, 0x01, 0x00, 0x00, 0x00,
  0x06, 0x00, 0x00, 0x00, 0x00, 0x00, 0x00, 0x00, 0x00, 0x00, 0x00, 0x00,
  0x01, 0x00, 0x00, 0x00, 0x06, 0xd2, 0x91, 0x3d, 0x28, 0x00, 0x00, 0x00,
  0x69, 0x6d, 0x75, 0x5f, 0x6d, 0x6f, 0x64, 0x65, 0x6c, 0x5f, 0x73, 0x6d,
  0x61, 0x6c, 0x6c, 0x2f, 0x63, 0x6f, 0x6e, 0x76, 0x31, 0x64, 0x2f, 0x43,
  0x6f, 0x6e, 0x76, 0x31, 0x44, 0x2f, 0x45, 0x78, 0x70, 0x61, 0x6e, 0x64,
  0x44, 0x69, 0x6d, 0x73, 0x00, 0x00, 0x00, 0x00, 0x04, 0x00, 0x00, 0x00,
  0x01, 0x00, 0x00, 0x00, 0x01, 0x00, 0x00, 0x00, 0x2c, 0x01, 0x00, 0x00,
  0x06, 0x00, 0x00, 0x00, 0xc6, 0xfe, 0xff, 0xff, 0x00, 0x00, 0x00, 0x01,
  0x18, 0x00, 0x00, 0x00, 0x24, 0x00, 0x00, 0x00, 0x44, 0x00, 0x00, 0x00,
  0x11, 0x00, 0x00, 0x00, 0x00, 0x00, 0x00, 0x09, 0x84, 0x00, 0x00, 0x00,
  0x03, 0x00, 0x00, 0x00, 0xff, 0xff, 0xff, 0xff, 0x2c, 0x01, 0x00, 0x00,
  0x06, 0x00, 0x00, 0x00, 0x0c, 0xfa, 0xff, 0xff, 0x08, 0x00, 0x00, 0x00,
  0x14, 0x00, 0x00, 0x00, 0x01, 0x00, 0x00, 0x00, 0x06, 0x00, 0x00, 0x00,
  0x00, 0x00, 0x00, 0x00, 0x00, 0x00, 0x00, 0x00, 0x01, 0x00, 0x00, 0x00,
  0x06, 0xd2, 0x91, 0x3d, 0x46, 0x00, 0x00, 0x00, 0x69, 0x6d, 0x75, 0x5f,
  0x6d, 0x6f, 0x64, 0x65, 0x6c, 0x5f, 0x73, 0x6d, 0x61, 0x6c, 0x6c, 0x2f,
  0x6e, 0x6f, 0x72, 0x6d, 0x61, 0x6c, 0x69, 0x7a, 0x65, 0x2f, 0x74, 0x72,
  0x75, 0x65, 0x64, 0x69, 0x76, 0x3b, 0x69, 0x6d, 0x75, 0x5f, 0x6d, 0x6f,
  0x64, 0x65, 0x6c, 0x5f, 0x73, 0x6d, 0x61, 0x6c, 0x6c, 0x2f, 0x6e, 0x6f,
  0x72, 0x6d, 0x61, 0x6c, 0x69, 0x7a, 0x65, 0x2f, 0x74, 0x72, 0x75, 0x65,
  0x64, 0x69, 0x76, 0x2f, 0x79, 0x31, 0x00, 0x00, 0x03, 0x00, 0x00, 0x00,
  0x01, 0x00, 0x00, 0x00, 0x2c, 0x01, 0x00, 0x00, 0x06, 0x00, 0x00, 0x00,
  0x76, 0xff, 0xff, 0xff, 0x00, 0x00, 0x00, 0x01, 0x18, 0x00, 0x00, 0x00,
  0x24, 0x00, 0x00, 0x00, 0x44, 0x00, 0x00, 0x00, 0x10, 0x00, 0x00, 0x00,
  0x00, 0x00, 0x00, 0x09, 0x5c, 0x00, 0x00, 0x00, 0x03, 0x00, 0x00, 0x00,
  0xff, 0xff, 0xff, 0xff, 0x2c, 0x01, 0x00, 0x00, 0x06, 0x00, 0x00, 0x00,
  0xbc, 0xfa, 0xff, 0xff, 0x08, 0x00, 0x00, 0x00, 0x14, 0x00, 0x00, 0x00,
  0x01, 0x00, 0x00, 0x00, 0x01, 0x00, 0x00, 0x00, 0x00, 0x00, 0x00, 0x00,
  0x00, 0x00, 0x00, 0x00, 0x01, 0x00, 0x00, 0x00, 0xbb, 0xda, 0x7f, 0x41,
  0x1d, 0x00, 0x00, 0x00, 0x69, 0x6d, 0x75, 0x5f, 0x6d, 0x6f, 0x64, 0x65,
  0x6c, 0x5f, 0x73, 0x6d, 0x61, 0x6c, 0x6c, 0x2f, 0x6e, 0x6f, 0x72, 0x6d,
  0x61, 0x6c, 0x69, 0x7a, 0x65, 0x2f, 0x73, 0x75, 0x62, 0x00, 0x00, 0x00,
  0x03, 0x00, 0x00, 0x00, 0x01, 0x00, 0x00, 0x00, 0x2c, 0x01, 0x00, 0x00,
  0x06, 0x00, 0x00, 0x00, 0x00, 0x00, 0x16, 0x00, 0x20, 0x00, 0x1c, 0x00,
  0x1b, 0x00, 0x14, 0x00, 0x10, 0x00, 0x0c, 0x00, 0x00, 0x00, 0x00, 0x00,
  0x08, 0x00, 0x07, 0x00, 0x16, 0x00, 0x00, 0x00, 0x00, 0x00, 0x00, 0x01,
  0x18, 0x00, 0x00, 0x00, 0x24, 0x00, 0x00, 0x00, 0x40, 0x00, 0x00, 0x00,
  0x0f, 0x00, 0x00, 0x00, 0x00, 0x00, 0x00, 0x09, 0x48, 0x00, 0x00, 0x00,
  0x03, 0x00, 0x00, 0x00, 0xff, 0xff, 0xff, 0xff, 0x2c, 0x01, 0x00, 0x00,
  0x06, 0x00, 0x00, 0x00, 0x5c, 0xfb, 0xff, 0xff, 0x08, 0x00, 0x00, 0x00,
  0x10, 0x00, 0x00, 0x00, 0x01, 0x00, 0x00, 0x00, 0x00, 0x00, 0x00, 0x00,
  0x00, 0x00, 0x00, 0x00, 0x01, 0x00, 0x00, 0x00, 0x37, 0xef, 0x7a, 0x41,
  0x0c, 0x00, 0x00, 0x00, 0x74, 0x66, 0x6c, 0x2e, 0x71, 0x75, 0x61, 0x6e,
  0x74, 0x69, 0x7a, 0x65, 0x00, 0x00, 0x00, 0x00, 0x03, 0x00, 0x00, 0x00,
  0x01, 0x00, 0x00, 0x00, 0x2c, 0x01, 0x00, 0x00, 0x06, 0x00, 0x00, 0x00,
  0xe6, 0xf9, 0xff, 0xff, 0x00, 0x00, 0x00, 0x01, 0x14, 0x00, 0x00, 0x00,
  0x30, 0x00, 0x00, 0x00, 0x0e, 0x00, 0x00, 0x00, 0x00, 0x00, 0x00, 0x09,
  0x48, 0x00, 0x00, 0x00, 0xbc, 0xfb, 0xff, 0xff, 0x08, 0x00, 0x00, 0x00,
  0x10, 0x00, 0x00, 0x00, 0x01, 0x00, 0x00, 0x00, 0xc2, 0xff, 0xff, 0xff,
  0xff, 0xff, 0xff, 0xff, 0x01, 0x00, 0x00, 0x00, 0x3e, 0xd7, 0xa4, 0x3e,
  0x1f, 0x00, 0x00, 0x00, 0x69, 0x6d, 0x75, 0x5f, 0x6d, 0x6f, 0x64, 0x65,
  0x6c, 0x5f, 0x73, 0x6d, 0x61, 0x6c, 0x6c, 0x2f, 0x6e, 0x6f, 0x72, 0x6d,
  0x61, 0x6c, 0x69, 0x7a, 0x65, 0x2f, 0x73, 0x75, 0x62, 0x2f, 0x79, 0x00,
  0x03, 0x00, 0x00, 0x00, 0x01, 0x00, 0x00, 0x00, 0x2c, 0x01, 0x00, 0x00,
  0x01, 0x00, 0x00, 0x00, 0x56, 0xfa, 0xff, 0xff, 0x00, 0x00, 0x00, 0x01,
  0x14, 0x00, 0x00, 0x00, 0x30, 0x00, 0x00, 0x00, 0x0d, 0x00, 0x00, 0x00,
  0x00, 0x00, 0x00, 0x09, 0x70, 0x00, 0x00, 0x00, 0x2c, 0xfc, 0xff, 0xff,
  0x08, 0x00, 0x00, 0x00, 0x10, 0x00, 0x00, 0x00, 0x01, 0x00, 0x00, 0x00,
  0x80, 0xff, 0xff, 0xff, 0xff, 0xff, 0xff, 0xff, 0x01, 0x00, 0x00, 0x00,
  0x63, 0x73, 0x1d, 0x38, 0x45, 0x00, 0x00, 0x00, 0x69, 0x6d, 0x75, 0x5f,
  0x6d, 0x6f, 0x64, 0x65, 0x6c, 0x5f, 0x73, 0x6d, 0x61, 0x6c, 0x6c, 0x2f,
  0x6e, 0x6f, 0x72, 0x6d, 0x61, 0x6c, 0x69, 0x7a, 0x65, 0x2f, 0x74, 0x72,
  0x75, 0x65, 0x64, 0x69, 0x76, 0x3b, 0x69, 0x6d, 0x75, 0x5f, 0x6d, 0x6f,
  0x64, 0x65, 0x6c, 0x5f, 0x73, 0x6d, 0x61, 0x6c, 0x6c, 0x2f, 0x6e, 0x6f,
  0x72, 0x6d, 0x61, 0x6c, 0x69, 0x7a, 0x65, 0x2f, 0x74, 0x72, 0x75, 0x65,
  0x64, 0x69, 0x76, 0x2f, 0x79, 0x00, 0x00, 0x00, 0x03, 0x00, 0x00, 0x00,
  0x01, 0x00, 0x00, 0x00, 0x2c, 0x01, 0x00, 0x00, 0x01, 0x00, 0x00, 0x00,
  0xee, 0xfa, 0xff, 0xff, 0x00, 0x00, 0x00, 0x01, 0x14, 0x00, 0x00, 0x00,
  0x84, 0x00, 0x00, 0x00, 0x0c, 0x00, 0x00, 0x00, 0x00, 0x00, 0x00, 0x09,
  0x9c, 0x00, 0x00, 0x00, 0xc4, 0xfc, 0xff, 0xff, 0x08, 0x00, 0x00, 0x00,
  0x48, 0x00, 0x00, 0x00, 0x08, 0x00, 0x00, 0x00, 0x00, 0x00, 0x00, 0x00,
  0x00, 0x00, 0x00, 0x00, 0x00, 0x00, 0x00, 0x00, 0x00, 0x00, 0x00, 0x00,
  0x00, 0x00, 0x00, 0x00, 0x00, 0x00, 0x00, 0x00, 0x00, 0x00, 0x00, 0x00,
  0x00, 0x00, 0x00, 0x00, 0x00, 0x00, 0x00, 0x00, 0x00, 0x00, 0x00, 0x00,
  0x00, 0x00, 0x00, 0x00, 0x00, 0x00, 0x00, 0x00, 0x00, 0x00, 0x00, 0x00,
  0x00, 0x00, 0x00, 0x00, 0x00, 0x00, 0x00, 0x00, 0x00, 0x00, 0x00, 0x00,
  0x08, 0x00, 0x00, 0x00, 0xad, 0xf4, 0x90, 0x3b, 0x0e, 0xeb, 0x96, 0x3b,
  0x21, 0x4c, 0x19, 0x3c, 0xc7, 0xb7, 0x9a, 0x3b, 0x72, 0xc5, 0xde, 0x3b,
  0x6c, 0x40, 0x97, 0x3b, 0x72, 0xfa, 0x83, 0x3b, 0x76, 0xae, 0xd7, 0x3b,
  0x1d, 0x00, 0x00, 0x00, 0x69, 0x6d, 0x75, 0x5f, 0x6d, 0x6f, 0x64, 0x65,
  0x6c, 0x5f, 0x73, 0x6d, 0x61, 0x6c, 0x6c, 0x2f, 0x63, 0x6f, 0x6e, 0x76,
  0x31, 0x64, 0x2f, 0x43, 0x6f, 0x6e, 0x76, 0x31, 0x44, 0x00, 0x00, 0x00,
  0x04, 0x00, 0x00, 0x00, 0x08, 0x00, 0x00, 0x00, 0x01, 0x00, 0x00, 0x00,
  0x03, 0x00, 0x00, 0x00, 0x06, 0x00, 0x00, 0x00, 0xb6, 0xfb, 0xff, 0xff,
  0x00, 0x00, 0x00, 0x01, 0x14, 0x00, 0x00, 0x00, 0x88, 0x00, 0x00, 0x00,
  0x0b, 0x00, 0x00, 0x00, 0x00, 0x00, 0x00, 0x02, 0xb0, 0x00, 0x00, 0x00,
  0x8c, 0xfd, 0xff, 0xff, 0x08, 0x00, 0x00, 0x00, 0x4c, 0x00, 0x00, 0x00,
  0x08, 0x00, 0x00, 0x00, 0x00, 0x00, 0x00, 0x00, 0x00, 0x00, 0x00, 0x00,
  0x00, 0x00, 0x00, 0x00, 0x00, 0x00, 0x00, 0x00, 0x00, 0x00, 0x00, 0x00,
  0x00, 0x00, 0x00, 0x00, 0x00, 0x00, 0x00, 0x00, 0x00, 0x00, 0x00, 0x00,
  0x00, 0x00, 0x00, 0x00, 0x00, 0x00, 0x00, 0x00, 0x00, 0x00, 0x00, 0x00,
  0x00, 0x00, 0x00, 0x00, 0x00, 0x00, 0x00, 0x00, 0x00, 0x00, 0x00, 0x00,
  0x00, 0x00, 0x00, 0x00, 0x00, 0x00, 0x00, 0x00, 0x00, 0x00, 0x00, 0x00,
  0x08, 0x00, 0x00, 0x00, 0x04, 0x23, 0xa5, 0x39, 0xe7, 0xed, 0xab, 0x39,
  0xc5, 0xa3, 0x2e, 0x3a, 0x0c, 0x42, 0xb0, 0x39, 0x32, 0xc9, 0xfd, 0x39,
  0x27, 0x4f, 0xac, 0x39, 0x42, 0x5a, 0x96, 0x39, 0x86, 0xb5, 0xf5, 0x39,
  0x2d, 0x00, 0x00, 0x00, 0x69, 0x6d, 0x75, 0x5f, 0x6d, 0x6f, 0x64, 0x65,
  0x6c, 0x5f, 0x73, 0x6d, 0x61, 0x6c, 0x6c, 0x2f, 0x63, 0x6f, 0x6e, 0x76,
  0x31, 0x64, 0x2f, 0x42, 0x69, 0x61, 0x73, 0x41, 0x64, 0x64, 0x2f, 0x52,
  0x65, 0x61, 0x64, 0x56, 0x61, 0x72, 0x69, 0x61, 0x62, 0x6c, 0x65, 0x4f,
  0x70, 0x00, 0x00, 0x00, 0x01, 0x00, 0x00, 0x00, 0x08, 0x00, 0x00, 0x00,
  0x86, 0xfc, 0xff, 0xff, 0x00, 0x00, 0x00, 0x01, 0x14, 0x00, 0x00, 0x00,
  0x54, 0x00, 0x00, 0x00, 0x0a, 0x00, 0x00, 0x00, 0x00, 0x00, 0x00, 0x09,
  0x6c, 0x00, 0x00, 0x00, 0x5c, 0xfe, 0xff, 0xff, 0x08, 0x00, 0x00, 0x00,
  0x28, 0x00, 0x00, 0x00, 0x04, 0x00, 0x00, 0x00, 0x00, 0x00, 0x00, 0x00,
  0x00, 0x00, 0x00, 0x00, 0x00, 0x00, 0x00, 0x00, 0x00, 0x00, 0x00, 0x00,
  0x00, 0x00, 0x00, 0x00, 0x00, 0x00, 0x00, 0x00, 0x00, 0x00, 0x00, 0x00,
  0x00, 0x00, 0x00, 0x00, 0x04, 0x00, 0x00, 0x00, 0xec, 0x6f, 0xdb, 0x3b,
  0x69, 0x86, 0xb8, 0x3b, 0x5e, 0x60, 0xe3, 0x3b, 0x64, 0xb7, 0x8e, 0x3b,
  0x1f, 0x00, 0x00, 0x00, 0x69, 0x6d, 0x75, 0x5f, 0x6d, 0x6f, 0x64, 0x65,
  0x6c, 0x5f, 0x73, 0x6d, 0x61, 0x6c, 0x6c, 0x2f, 0x63, 0x6f, 0x6e, 0x76,
  0x31, 0x64, 0x5f, 0x31, 0x2f, 0x43, 0x6f, 0x6e, 0x76, 0x31, 0x44, 0x00,
  0x04, 0x00, 0x00, 0x00, 0x04, 0x00, 0x00, 0x00, 0x01, 0x00, 0x00, 0x00,
  0x03, 0x00, 0x00, 0x00, 0x08, 0x00, 0x00, 0x00, 0x1e, 0xfd, 0xff, 0xff,
  0x00, 0x00, 0x00, 0x01, 0x14, 0x00, 0x00, 0x00, 0x58, 0x00, 0x00, 0x00,
  0x09, 0x00, 0x00, 0x00, 0x00, 0x00, 0x00, 0x02, 0x80, 0x00, 0x00, 0x00,
  0xf4, 0xfe, 0xff, 0xff, 0x08, 0x00, 0x00, 0x00, 0x2c, 0x00, 0x00, 0x00,
  0x04, 0x00, 0x00, 0x00, 0x00, 0x00, 0x00, 0x00, 0x00, 0x00, 0x00, 0x00,
  0x00, 0x00, 0x00, 0x00, 0x00, 0x00, 0x00, 0x00, 0x00, 0x00, 0x00, 0x00,
  0x00, 0x00, 0x00, 0x00, 0x00, 0x00, 0x00, 0x00, 0x00, 0x00, 0x00, 0x00,
  0x00, 0x00, 0x00, 0x00, 0x04, 0x00, 0x00, 0x00, 0xf4, 0xcc, 0x7a, 0x39,
  0x09, 0xe6, 0x52, 0x39, 0xf2, 0xef, 0x81, 0x39, 0x45, 0x1d, 0x23, 0x39,
  0x2f, 0x00, 0x00, 0x00, 0x69, 0x6d, 0x75, 0x5f, 0x6d, 0x6f, 0x64, 0x65,
  0x6c, 0x5f, 0x73, 0x6d, 0x61, 0x6c, 0x6c, 0x2f, 0x63, 0x6f, 0x6e, 0x76,
  0x31, 0x64, 0x5f, 0x31, 0x2f, 0x42, 0x69, 0x61, 0x73, 0x41, 0x64, 0x64,
  0x2f, 0x52, 0x65, 0x61, 0x64, 0x56, 0x61, 0x72, 0x69, 0x61, 0x62, 0x6c,
  0x65, 0x4f, 0x70, 0x00, 0x01, 0x00, 0x00, 0x00, 0x04, 0x00, 0x00, 0x00,
  0xbe, 0xfd, 0xff, 0xff, 0x00, 0x00, 0x00, 0x01, 0x14, 0x00, 0x00, 0x00,
  0x30, 0x00, 0x00, 0x00, 0x08, 0x00, 0x00, 0x00, 0x00, 0x00, 0x00, 0x09,
  0x48, 0x00, 0x00, 0x00, 0x94, 0xff, 0xff, 0xff, 0x08, 0x00, 0x00, 0x00,
  0x10, 0x00, 0x00, 0x00, 0x01, 0x00, 0x00, 0x00, 0x00, 0x00, 0x00, 0x00,
  0x00, 0x00, 0x00, 0x00, 0x01, 0x00, 0x00, 0x00, 0xb4, 0x0a, 0xdb, 0x3b,
  0x1c, 0x00, 0x00, 0x00, 0x69, 0x6d, 0x75, 0x5f, 0x6d, 0x6f, 0x64, 0x65,
  0x6c, 0x5f, 0x73, 0x6d, 0x61, 0x6c, 0x6c, 0x2f, 0x64, 0x65, 0x6e, 0x73,
  0x65, 0x2f, 0x4d, 0x61, 0x74, 0x4d, 0x75, 0x6c, 0x00, 0x00, 0x00, 0x00,
  0x02, 0x00, 0x00, 0x00, 0x04, 0x00, 0x00, 0x00, 0x2c, 0x01, 0x00, 0x00,
  0x2a, 0xfe, 0xff, 0xff, 0x00, 0x00, 0x00, 0x01, 0x20, 0x00, 0x00, 0x00,
  0x40, 0x00, 0x00, 0x00, 0x07, 0x00, 0x00, 0x00, 0x00, 0x00, 0x00, 0x02,
  0x68, 0x00, 0x00, 0x00, 0x0c, 0x00, 0x0c, 0x00, 0x00, 0x00, 0x00, 0x00,
  0x08, 0x00, 0x04, 0x00, 0x0c, 0x00, 0x00, 0x00, 0x08, 0x00, 0x00, 0x00,
  0x14, 0x00, 0x00, 0x00, 0x01, 0x00, 0x00, 0x00, 0x00, 0x00, 0x00, 0x00,
  0x00, 0x00, 0x00, 0x00, 0x00, 0x00, 0x00, 0x00, 0x01, 0x00, 0x00, 0x00,
  0xf8, 0x71, 0x09, 0x3a, 0x2c, 0x00, 0x00, 0x00, 0x69, 0x6d, 0x75, 0x5f,
  0x6d, 0x6f, 0x64, 0x65, 0x6c, 0x5f, 0x73, 0x6d, 0x61, 0x6c, 0x6c, 0x2f,
  0x64, 0x65, 0x6e, 0x73, 0x65, 0x2f, 0x42, 0x69, 0x61, 0x73, 0x41, 0x64,
  0x64, 0x2f, 0x52, 0x65, 0x61, 0x64, 0x56, 0x61, 0x72, 0x69, 0x61, 0x62,
  0x6c, 0x65, 0x4f, 0x70, 0x00, 0x00, 0x00, 0x00, 0x01, 0x00, 0x00, 0x00,
  0x04, 0x00, 0x00, 0x00, 0xb2, 0xfe, 0xff, 0xff, 0x00, 0x00, 0x00, 0x01,
  0x14, 0x00, 0x00, 0x00, 0x14, 0x00, 0x00, 0x00, 0x06, 0x00, 0x00, 0x00,
  0x00, 0x00, 0x00, 0x02, 0x2c, 0x00, 0x00, 0x00, 0x1c, 0xfe, 0xff, 0xff,
  0x1d, 0x00, 0x00, 0x00, 0x69, 0x6d, 0x75, 0x5f, 0x6d, 0x6f, 0x64, 0x65,
  0x6c, 0x5f, 0x73, 0x6d, 0x61, 0x6c, 0x6c, 0x2f, 0x66, 0x6c, 0x61, 0x74,
  0x74, 0x65, 0x6e, 0x2f, 0x43, 0x6f, 0x6e, 0x73, 0x74, 0x00, 0x00, 0x00,
  0x01, 0x00, 0x00, 0x00, 0x02, 0x00, 0x00, 0x00, 0xfe, 0xfe, 0xff, 0xff,
  0x00, 0x00, 0x00, 0x01, 0x14, 0x00, 0x00, 0x00, 0x14, 0x00, 0x00, 0x00,
  0x05, 0x00, 0x00, 0x00, 0x00, 0x00, 0x00, 0x02, 0x3c, 0x00, 0x00, 0x00,
  0x68, 0xfe, 0xff, 0xff, 0x2c, 0x00, 0x00, 0x00, 0x69, 0x6d, 0x75, 0x5f,
  0x6d, 0x6f, 0x64, 0x65, 0x6c, 0x5f, 0x73, 0x6d, 0x61, 0x6c, 0x6c, 0x2f,
  0x6d, 0x61, 0x78, 0x5f, 0x70, 0x6f, 0x6f, 0x6c, 0x69, 0x6e, 0x67, 0x31,
  0x64, 0x2f, 0x45, 0x78, 0x70, 0x61, 0x6e, 0x64, 0x44, 0x69, 0x6d, 0x73,
  0x2f, 0x64, 0x69, 0x6d, 0x00, 0x00, 0x00, 0x00, 0x00, 0x00, 0x00, 0x00,
  0x56, 0xff, 0xff, 0xff, 0x00, 0x00, 0x00, 0x01, 0x14, 0x00, 0x00, 0x00,
  0x14, 0x00, 0x00, 0x00, 0x04, 0x00, 0x00, 0x00, 0x00, 0x00, 0x00, 0x02,
  0x34, 0x00, 0x00, 0x00, 0xc0, 0xfe, 0xff, 0xff, 0x27, 0x00, 0x00, 0x00,
  0x69, 0x6d, 0x75, 0x5f, 0x6d, 0x6f, 0x64, 0x65, 0x6c, 0x5f, 0x73, 0x6d,
  0x61, 0x6c, 0x6c, 0x2f, 0x63, 0x6f, 0x6e, 0x76, 0x31, 0x64, 0x5f, 0x31,
  0x2f, 0x43, 0x6f, 0x6e, 0x76, 0x31, 0x44, 0x2f, 0x53, 0x71, 0x75, 0x65,
  0x65, 0x7a, 0x65, 0x00, 0x01, 0x00, 0x00, 0x00, 0x03, 0x00, 0x00, 0x00,
  0xaa, 0xff, 0xff, 0xff, 0x00, 0x00, 0x00, 0x01, 0x14, 0x00, 0x00, 0x00,
  0x14, 0x00, 0x00, 0x00, 0x03, 0x00, 0x00, 0x00, 0x00, 0x00, 0x00, 0x02,
  0x34, 0x00, 0x00, 0x00, 0x14, 0xff, 0xff, 0xff, 0x25, 0x00, 0x00, 0x00,
  0x69, 0x6d, 0x75, 0x5f, 0x6d, 0x6f, 0x64, 0x65, 0x6c, 0x5f, 0x73, 0x6d,
  0x61, 0x6c, 0x6c, 0x2f, 0x63, 0x6f, 0x6e, 0x76, 0x31, 0x64, 0x2f, 0x43,
  0x6f, 0x6e, 0x76, 0x31, 0x44, 0x2f, 0x53, 0x71, 0x75, 0x65, 0x65, 0x7a,
  0x65, 0x00, 0x00, 0x00, 0x01, 0x00, 0x00, 0x00, 0x03, 0x00, 0x00, 0x00,
  0x00, 0x00, 0x16, 0x00, 0x1c, 0x00, 0x18, 0x00, 0x17, 0x00, 0x10, 0x00,
  0x0c, 0x00, 0x08, 0x00, 0x00, 0x00, 0x00, 0x00, 0x00, 0x00, 0x07, 0x00,
  0x16, 0x00, 0x00, 0x00, 0x00, 0x00, 0x00, 0x01, 0x14, 0x00, 0x00, 0x00,
  0x14, 0x00, 0x00, 0x00, 0x02, 0x00, 0x00, 0x00, 0x00, 0x00, 0x00, 0x02,
  0x3c, 0x00, 0x00, 0x00, 0x80, 0xff, 0xff, 0xff, 0x2c, 0x00, 0x00, 0x00,
  0x69, 0x6d, 0x75, 0x5f, 0x6d, 0x6f, 0x64, 0x65, 0x6c, 0x5f, 0x73, 0x6d,
  0x61, 0x6c, 0x6c, 0x2f, 0x63, 0x6f, 0x6e, 0x76, 0x31, 0x64, 0x2f, 0x43,
  0x6f, 0x6e, 0x76, 0x31, 0x44, 0x2f, 0x45, 0x78, 0x70, 0x61, 0x6e, 0x64,
  0x44, 0x69, 0x6d, 0x73, 0x2f, 0x64, 0x69, 0x6d, 0x00, 0x00, 0x00, 0x00,
  0x00, 0x00, 0x00, 0x00, 0x00, 0x00, 0x16, 0x00, 0x1c, 0x00, 0x18, 0x00,
  0x00, 0x00, 0x14, 0x00, 0x10, 0x00, 0x0c, 0x00, 0x00, 0x00, 0x00, 0x00,
  0x08, 0x00, 0x07, 0x00, 0x16, 0x00, 0x00, 0x00, 0x00, 0x00, 0x00, 0x01,
  0x14, 0x00, 0x00, 0x00, 0x24, 0x00, 0x00, 0x00, 0x24, 0x00, 0x00, 0x00,
  0x01, 0x00, 0x00, 0x00, 0x3c, 0x00, 0x00, 0x00, 0x03, 0x00, 0x00, 0x00,
  0xff, 0xff, 0xff, 0xff, 0x2c, 0x01, 0x00, 0x00, 0x06, 0x00, 0x00, 0x00,
  0x04, 0x00, 0x04, 0x00, 0x04, 0x00, 0x00, 0x00, 0x19, 0x00, 0x00, 0x00,
  0x73, 0x65, 0x72, 0x76, 0x69, 0x6e, 0x67, 0x5f, 0x64, 0x65, 0x66, 0x61,
  0x75, 0x6c, 0x74, 0x5f, 0x69, 0x6e, 0x70, 0x75, 0x74, 0x5f, 0x31, 0x3a,
  0x30, 0x00, 0x00, 0x00, 0x03, 0x00, 0x00, 0x00, 0x01, 0x00, 0x00, 0x00,
  0x2c, 0x01, 0x00, 0x00, 0x06, 0x00, 0x00, 0x00, 0x0a, 0x00, 0x00, 0x00,
  0xc8, 0x00, 0x00, 0x00, 0xa8, 0x00, 0x00, 0x00, 0x88, 0x00, 0x00, 0x00,
  0x78, 0x00, 0x00, 0x00, 0x64, 0x00, 0x00, 0x00, 0x54, 0x00, 0x00, 0x00,
  0x40, 0x00, 0x00, 0x00, 0x2c, 0x00, 0x00, 0x00, 0x18, 0x00, 0x00, 0x00,
  0x04, 0x00, 0x00, 0x00, 0x88, 0xff, 0xff, 0xff, 0x06, 0x00, 0x00, 0x00,
  0x02, 0x00, 0x00, 0x00, 0x00, 0x00, 0x00, 0x06, 0x98, 0xff, 0xff, 0xff,
  0x19, 0x00, 0x00, 0x00, 0x02, 0x00, 0x00, 0x00, 0x00, 0x00, 0x00, 0x19,
  0xa8, 0xff, 0xff, 0xff, 0x09, 0x00, 0x00, 0x00, 0x04, 0x00, 0x00, 0x00,
  0x00, 0x00, 0x00, 0x09, 0xb8, 0xff, 0xff, 0xff, 0x11, 0x00, 0x00, 0x00,
  0x02, 0x00, 0x00, 0x00, 0x00, 0x00, 0x00, 0x11, 0xac, 0xff, 0xff, 0xff,
  0x16, 0x00, 0x00, 0x00, 0x00, 0x00, 0x00, 0x16, 0xd4, 0xff, 0xff, 0xff,
  0x03, 0x00, 0x00, 0x00, 0x03, 0x00, 0x00, 0x00, 0x00, 0x00, 0x00, 0x03,
  0xc8, 0xff, 0xff, 0xff, 0x46, 0x00, 0x00, 0x00, 0x00, 0x00, 0x00, 0x46,
  0xf0, 0xff, 0xff, 0xff, 0x12, 0x00, 0x00, 0x00, 0x02, 0x00, 0x00, 0x00,
  0x00, 0x00, 0x00, 0x12, 0x0c, 0x00, 0x10, 0x00, 0x0f, 0x00, 0x00, 0x00,
  0x08, 0x00, 0x04, 0x00, 0x0c, 0x00, 0x00, 0x00, 0x29, 0x00, 0x00, 0x00,
  0x02, 0x00, 0x00, 0x00, 0x00, 0x00, 0x00, 0x29, 0x0c, 0x00, 0x0c, 0x00,
  0x0b, 0x00, 0x00, 0x00, 0x00, 0x00, 0x04, 0x00, 0x0c, 0x00, 0x00, 0x00,
  0x72, 0x00, 0x00, 0x00, 0x00, 0x00, 0x00, 0x72
};


const int g_model_len = sizeof(g_model);