#include "model.h"


alignas(16) const unsigned char g_model[] = {
  0x20, 0x00, 0x00, 0x00, 0x54, 0x46, 0x4c, 0x33, 0x00, 0x00, 0x00, 0x00,
  0x14, 0x00, 0x20, 0x00, 0x1c, 0x00, 0x18, 0x00, 0x14, 0x00, 0x10, 0x00,
  0x0c, 0x00, 0x00, 0x00, 0x08, 0x00, 0x04, 0x00, 0x14, 0x00, 0x00, 0x00,
  0x1c, 0x00, 0x00, 0x00, 0x84, 0x00, 0x00, 0x00, 0xdc, 0x00, 0x00, 0x00,
  0x1c, 0x0b, 0x00, 0x00, 0x2c, 0x0b, 0x00, 0x00, 0x00, 0x21, 0x00, 0x00,
  0x03, 0x00, 0x00, 0x00, 0x01, 0x00, 0x00, 0x00, 0x04, 0x00, 0x00, 0x00,
  0xa6, 0xf2, 0xff, 0xff, 0x0c, 0x00, 0x00, 0x00, 0x1c, 0x00, 0x00, 0x00,
  0x3c, 0x00, 0x00, 0x00, 0x0f, 0x00, 0x00, 0x00, 0x73, 0x65, 0x72, 0x76,
  0x69, 0x6e, 0x67, 0x5f, 0x64, 0x65, 0x66, 0x61, 0x75, 0x6c, 0x74, 0x00,
  0x01, 0x00, 0x00, 0x00, 0x04, 0x00, 0x00, 0x00, 0x98, 0xff, 0xff, 0xff,
  0x1c, 0x00, 0x00, 0x00, 0x04, 0x00, 0x00, 0x00, 0x08, 0x00, 0x00, 0x00,
  0x6f, 0x75, 0x74, 0x70, 0x75, 0x74, 0x5f, 0x31, 0x00, 0x00, 0x00, 0x00,
  0x01, 0x00, 0x00, 0x00, 0x04, 0x00, 0x00, 0x00, 0x82, 0xf4, 0xff, 0xff,
  0x04, 0x00, 0x00, 0x00, 0x07, 0x00, 0x00, 0x00, 0x69, 0x6e, 0x70, 0x75,
  0x74, 0x5f, 0x31, 0x00, 0x02, 0x00, 0x00, 0x00, 0x34, 0x00, 0x00, 0x00,
  0x04, 0x00, 0x00, 0x00, 0xdc, 0xff, 0xff, 0xff, 0x1f, 0x00, 0x00, 0x00,
  0x04, 0x00, 0x00, 0x00, 0x13, 0x00, 0x00, 0x00, 0x43, 0x4f, 0x4e, 0x56,
  0x45, 0x52, 0x53, 0x49, 0x4f, 0x4e, 0x5f, 0x4d, 0x45, 0x54, 0x41, 0x44,
  0x41, 0x54, 0x41, 0x00, 0x08, 0x00, 0x0c, 0x00, 0x08, 0x00, 0x04, 0x00,
  0x08, 0x00, 0x00, 0x00, 0x1e, 0x00, 0x00, 0x00, 0x04, 0x00, 0x00, 0x00,
  0x13, 0x00, 0x00, 0x00, 0x6d, 0x69, 0x6e, 0x5f, 0x72, 0x75, 0x6e, 0x74,
  0x69, 0x6d, 0x65, 0x5f, 0x76, 0x65, 0x72, 0x73, 0x69, 0x6f, 0x6e, 0x00,
  0x20, 0x00, 0x00, 0x00, 0x3c, 0x0a, 0x00, 0x00, 0x34, 0x0a, 0x00, 0x00,
  0x20, 0x0a, 0x00, 0x00, 0x04, 0x0a, 0x00, 0x00, 0xe8, 0x09, 0x00, 0x00,
  0xd4, 0x09, 0x00, 0x00, 0xbc, 0x09, 0x00, 0x00, 0x9c, 0x09, 0x00, 0x00,
  0xdc, 0x04, 0x00, 0x00, 0xbc, 0x04, 0x00, 0x00, 0x4c, 0x04, 0x00, 0x00,
  0x1c, 0x04, 0x00, 0x00, 0x7c, 0x03, 0x00, 0x00, 0x40, 0x02, 0x00, 0x00,
  0x04, 0x01, 0x00, 0x00, 0xfc, 0x00, 0x00, 0x00, 0xf4, 0x00, 0x00, 0x00,
  0xec, 0x00, 0x00, 0x00, 0xe4, 0x00, 0x00, 0x00, 0xdc, 0x00, 0x00, 0x00,
  0xd4, 0x00, 0x00, 0x00, 0xcc, 0x00, 0x00, 0x00, 0xc4, 0x00, 0x00, 0x00,
  0xbc, 0x00, 0x00, 0x00, 0xb4, 0x00, 0x00, 0x00, 0xac, 0x00, 0x00, 0x00,
  0xa4, 0x00, 0x00, 0x00, 0x9c, 0x00, 0x00, 0x00, 0x94, 0x00, 0x00, 0x00,
  0x8c, 0x00, 0x00, 0x00, 0x6c, 0x00, 0x00, 0x00, 0x04, 0x00, 0x00, 0x00,
  0x76, 0xf5, 0xff, 0xff, 0x04, 0x00, 0x00, 0x00, 0x58, 0x00, 0x00, 0x00,
  0x0c, 0x00, 0x00, 0x00, 0x08, 0x00, 0x0e, 0x00, 0x08, 0x00, 0x04, 0x00,
  0x08, 0x00, 0x00, 0x00, 0x10, 0x00, 0x00, 0x00, 0x28, 0x00, 0x00, 0x00,
  0x00, 0x00, 0x06, 0x00, 0x08, 0x00, 0x04, 0x00, 0x06, 0x00, 0x00, 0x00,
  0x04, 0x00, 0x00, 0x00, 0x01, 0x00, 0x00, 0x00, 0xeb, 0x03, 0x00, 0x00,
  0x00, 0x00, 0x0a, 0x00, 0x10, 0x00, 0x0c, 0x00, 0x08, 0x00, 0x04, 0x00,
  0x0a, 0x00, 0x00, 0x00, 0x02, 0x00, 0x00, 0x00, 0x02, 0x00, 0x00, 0x00,
  0x04, 0x00, 0x00, 0x00, 0x06, 0x00, 0x00, 0x00, 0x32, 0x2e, 0x31, 0x32,
  0x2e, 0x30, 0x00, 0x00, 0xda, 0xf5, 0xff, 0xff, 0x04, 0x00, 0x00, 0x00,
  0x10, 0x00, 0x00, 0x00, 0x31, 0x2e, 0x31, 0x34, 0x2e, 0x30, 0x00, 0x00,
  0x00, 0x00, 0x00, 0x00, 0x00, 0x00, 0x00, 0x00, 0x0c, 0xe1, 0xff, 0xff,
  0x10, 0xe1, 0xff, 0xff, 0x14, 0xe1, 0xff, 0xff, 0x18, 0xe1, 0xff, 0xff,
  0x1c, 0xe1, 0xff, 0xff, 0x20, 0xe1, 0xff, 0xff, 0x24, 0xe1, 0xff, 0xff,
  0x28, 0xe1, 0xff, 0xff, 0x2c, 0xe1, 0xff, 0xff, 0x30, 0xe1, 0xff, 0xff,
  0x34, 0xe1, 0xff, 0xff, 0x38, 0xe1, 0xff, 0xff, 0x3c, 0xe1, 0xff, 0xff,
  0x40, 0xe1, 0xff, 0xff, 0x44, 0xe1, 0xff, 0xff, 0x32, 0xf6, 0xff, 0xff,
  0x04, 0x00, 0x00, 0x00, 0x2c, 0x01, 0x00, 0x00, 0xc1, 0xc0, 0xc0, 0xc0,
  0xc0, 0xc0, 0xc0, 0xbf, 0xbf, 0xc0, 0xc0, 0xc0, 0xc0, 0xc0, 0xc0, 0xbf,
  0xbe, 0xc0, 0xc1, 0xc1, 0xc0, 0xbf, 0xbf, 0xc0, 0xbf, 0xc0, 0xc0, 0xc0,
  0xc0, 0xc0, 0xc0, 0xc0, 0xc0, 0xc0, 0xc1, 0xc2, 0xc2, 0xc1, 0xc2, 0xc2,
  0xc3, 0xc3, 0xc3, 0xc4, 0xc4, 0xc4, 0xc4, 0xc6, 0xc6, 0xc6, 0xc8, 0xc8,
  0xc9, 0xca, 0xcb, 0xcb, 0xcc, 0xcd, 0xce, 0xcf, 0xd0, 0xd1, 0xd1, 0xd2,
  0xd3, 0xd4, 0xd5, 0xd5, 0xd6, 0xd6, 0xd8, 0xd9, 0xd9, 0xda, 0xda, 0xdb,
  0xdb, 0xdb, 0xdd, 0xde, 0xde, 0xde, 0xde, 0xde, 0xdf, 0xdf, 0xdf, 0xdf,
  0xdf, 0xdf, 0xdf, 0xe0, 0xe0, 0xdf, 0xdf, 0xde, 0xdf, 0xdf, 0xdf, 0xdf,
  0xe0, 0xe1, 0xe1, 0xe2, 0xe1, 0xe2, 0xe2, 0xe2, 0xe2, 0xe1, 0xe0, 0xdf,
  0xdc, 0xd9, 0xd5, 0xd1, 0xcd, 0xc7, 0xc1, 0xbc, 0xb6, 0xaf, 0xa9, 0xa4,
  0x9e, 0x99, 0x94, 0x8f, 0x8b, 0x88, 0x86, 0x83, 0x82, 0x80, 0x80, 0x80,
  0x80, 0x84, 0x86, 0x84, 0x86, 0x8b, 0x8b, 0x91, 0x9b, 0xa6, 0xcd, 0xf6,
  0x44, 0x7f, 0x12, 0xc8, 0x0c, 0x34, 0x1a, 0x15, 0x30, 0x24, 0x26, 0x30,
  0x28, 0x2b, 0x30, 0x2f, 0x35, 0x3b, 0x3d, 0x42, 0x48, 0x4a, 0x4d, 0x4f,
  0x4d, 0x4d, 0x4b, 0x46, 0x43, 0x3d, 0x37, 0x31, 0x2b, 0x23, 0x1c, 0x16,
  0x0f, 0x09, 0x03, 0xff, 0xfa, 0xf7, 0xf4, 0xf1, 0xef, 0xed, 0xeb, 0xea,
  0xe8, 0xe7, 0xe6, 0xe6, 0xe6, 0xe5, 0xe5, 0xe6, 0xe5, 0xe6, 0xe5, 0xe5,
  0xe6, 0xe5, 0xe6, 0xe5, 0xe4, 0xe4, 0xe4, 0xe3, 0xe1, 0xe1, 0xe0, 0xe0,
  0xde, 0xdd, 0xdd, 0xdc, 0xda, 0xda, 0xd8, 0xd6, 0xd5, 0xd3, 0xd2, 0xd0,
  0xce, 0xcc, 0xca, 0xc9, 0xc7, 0xc5, 0xc4, 0xc2, 0xc1, 0xc0, 0xbf, 0xbe,
  0xbe, 0xbd, 0xbd, 0xbd, 0xbe, 0xbe, 0xbe, 0xbe, 0xbf, 0xbf, 0xc0, 0xc1,
  0xc0, 0xc1, 0xc1, 0xc2, 0xc1, 0xc1, 0xc2, 0xc3, 0xc3, 0xc3, 0xc3, 0xc3,
  0xc3, 0xc3, 0xc3, 0xc3, 0xc2, 0xc2, 0xc2, 0xc1, 0xc0, 0xbf, 0xbe, 0xbd,
  0xbc, 0xbc, 0xbc, 0xbb, 0xba, 0xb8, 0xb8, 0xb9, 0xb6, 0xb7, 0xb6, 0xb5,
  0xb5, 0xb4, 0xb4, 0xb4, 0xb3, 0xb3, 0xb2, 0xb1, 0x6a, 0xf7, 0xff, 0xff,
  0x04, 0x00, 0x00, 0x00, 0x2c, 0x01, 0x00, 0x00, 0x71, 0x70, 0x6f, 0x6e,
  0x6d, 0x6c, 0x6b, 0x6b, 0x6a, 0x67, 0x65, 0x65, 0x65, 0x63, 0x63, 0x62,
  0x61, 0x62, 0x64, 0x60, 0x5e, 0x5e, 0x5d, 0x5b, 0x5a, 0x59, 0x57, 0x56,
  0x55, 0x53, 0x51, 0x50, 0x4e, 0x4c, 0x4b, 0x49, 0x48, 0x46, 0x45, 0x44,
  0x41, 0x40, 0x3e, 0x3d, 0x3b, 0x39, 0x38, 0x36, 0x34, 0x32, 0x31, 0x2f,
  0x2e, 0x2c, 0x2a, 0x28, 0x26, 0x24, 0x23, 0x21, 0x1f, 0x1d, 0x1b, 0x1a,
  0x18, 0x16, 0x15, 0x13, 0x11, 0x0f, 0x0e, 0x0c, 0x0b, 0x0a, 0x08, 0x07,
  0x06, 0x05, 0x04, 0x03, 0x02, 0x01, 0x00, 0xff, 0xfe, 0xfd, 0xfc, 0xfc,
  0xfb, 0xfa, 0xf9, 0xf8, 0xf7, 0xf6, 0xf5, 0xf4, 0xf3, 0xf1, 0xf0, 0xef,
  0xee, 0xec, 0xeb, 0xe9, 0xe8, 0xe6, 0xe5, 0xe3, 0xe2, 0xe0, 0xdf, 0xdd,
  0xdc, 0xda, 0xd9, 0xd8, 0xd6, 0xd5, 0xd3, 0xd2, 0xd0, 0xce, 0xcd, 0xcb,
  0xc9, 0xc7, 0xc6, 0xc4, 0xc2, 0xc1, 0xbf, 0xbe, 0xbd, 0xbb, 0xba, 0xb9,
  0xb8, 0xb7, 0xb6, 0xb5, 0xb4, 0xb4, 0xb3, 0xb2, 0xb2, 0xb1, 0xb1, 0xb2,
  0xb2, 0xb2, 0xb5, 0xb8, 0xb9, 0xbd, 0xc0, 0xbf, 0xc0, 0xbe, 0xbc, 0xbb,
  0xb9, 0xb8, 0xb8, 0xb7, 0xb7, 0xb8, 0xb8, 0xb9, 0xba, 0xba, 0xbb, 0xbc,
  0xbd, 0xbe, 0xbf, 0xc0, 0xc2, 0xc3, 0xc4, 0xc6, 0xc7, 0xc9, 0xcb, 0xcc,
  0xce, 0xcf, 0xd1, 0xd3, 0xd4, 0xd6, 0xd7, 0xd9, 0xda, 0xdc, 0xdd, 0xdf,
  0xe1, 0xe2, 0xe4, 0xe5, 0xe7, 0xe9, 0xea, 0xec, 0xee, 0xef, 0xf1, 0xf3,
  0xf4, 0xf6, 0xf8, 0xfa, 0xfb, 0xfd, 0xff, 0x01, 0x02, 0x04, 0x06, 0x07,
  0x09, 0x0b, 0x0c, 0x0e, 0x0f, 0x11, 0x12, 0x13, 0x15, 0x16, 0x18, 0x19,
  0x1a, 0x1b, 0x1c, 0x1e, 0x1f, 0x20, 0x21, 0x22, 0x23, 0x24, 0x25, 0x26,
  0x26, 0x27, 0x28, 0x29, 0x29, 0x29, 0x2a, 0x2a, 0x2a, 0x2b, 0x2b, 0x2b,
  0x2b, 0x2c, 0x2c, 0x2d, 0x2d, 0x2e, 0x2e, 0x2f, 0x30, 0x32, 0x33, 0x34,
  0x35, 0x37, 0x39, 0x3b, 0x3d, 0x3f, 0x41, 0x43, 0x46, 0x47, 0x4a, 0x4c,
  0x4f, 0x51, 0x54, 0x58, 0x5a, 0x5d, 0x60, 0x63, 0x67, 0x69, 0x6b, 0x6d,
  0x70, 0x73, 0x75, 0x77, 0x79, 0x7b, 0x7d, 0x7f, 0xa2, 0xf8, 0xff, 0xff,
  0x04, 0x00, 0x00, 0x00, 0x90, 0x00, 0x00, 0x00, 0x2c, 0x7f, 0x53, 0xd9,
  0x21, 0x32, 0x13, 0x5c, 0x1d, 0x21, 0xe3, 0x2d, 0x06, 0x6e, 0x4f, 0x13,
  0x1e, 0xf7, 0x7e, 0xe0, 0x11, 0x9f, 0x20, 0x9d, 0xfa, 0x5b, 0x7f, 0x90,
  0xa7, 0xc8, 0x42, 0x5a, 0x26, 0x2d, 0x04, 0xd3, 0x19, 0xba, 0x27, 0x39,
  0xc9, 0x28, 0xe1, 0x81, 0x2b, 0xfe, 0xc1, 0x1c, 0xd8, 0xce, 0x34, 0xd3,
  0xf1, 0xe2, 0x13, 0x06, 0xc7, 0x2a, 0x33, 0xe6, 0x54, 0x67, 0x28, 0x1d,
  0x7f, 0xc6, 0xc8, 0x2f, 0x45, 0xde, 0x1b, 0x14, 0xc7, 0x56, 0xf2, 0x4a,
  0xc0, 0x65, 0x27, 0xe1, 0x0d, 0x7f, 0x3f, 0x1d, 0x1f, 0x6c, 0x01, 0x2a,
  0xfc, 0x30, 0xfa, 0x64, 0x03, 0x50, 0xe0, 0xf7, 0xd8, 0x72, 0x07, 0x5f,
  0x04, 0x33, 0xdb, 0x7f, 0xee, 0x12, 0x34, 0x7c, 0x41, 0x4b, 0x1b, 0xf0,
  0x03, 0xf9, 0xfb, 0x7f, 0xd7, 0xd3, 0x14, 0xc8, 0x09, 0x1f, 0xee, 0xe6,
  0x1a, 0xcd, 0x61, 0x7f, 0x48, 0x01, 0x42, 0x0c, 0x6f, 0x78, 0x6c, 0xe2,
  0x42, 0xff, 0x6c, 0x79, 0x61, 0x1a, 0x4a, 0x0a, 0x3e, 0xf9, 0xff, 0xff,
  0x04, 0x00, 0x00, 0x00, 0x20, 0x00, 0x00, 0x00, 0x42, 0xfe, 0xff, 0xff,
  0x3d, 0xfb, 0xff, 0xff, 0x64, 0x03, 0x00, 0x00, 0x21, 0xfb, 0xff, 0xff,
  0x34, 0xfa, 0xff, 0xff, 0xaa, 0xfa, 0xff, 0xff, 0x72, 0xfb, 0xff, 0xff,
  0xa3, 0xff, 0xff, 0xff, 0x6a, 0xf9, 0xff, 0xff, 0x04, 0x00, 0x00, 0x00,
  0x60, 0x00, 0x00, 0x00, 0x56, 0x46, 0xc8, 0x23, 0xba, 0x59, 0x7f, 0x15,
  0x30, 0xc4, 0x0e, 0xfc, 0xc4, 0xfa, 0xe9, 0x60, 0xfa, 0x02, 0x9e, 0x56,
  0xa4, 0xff, 0x1b, 0x53, 0x58, 0x7b, 0x1c, 0xaa, 0x3f, 0x5d, 0x47, 0xbe,
  0x12, 0x76, 0x39, 0xd2, 0x16, 0x59, 0x2f, 0xb7, 0x78, 0x13, 0x05, 0x59,
  0x7f, 0x47, 0x57, 0xc7, 0x65, 0x36, 0xb0, 0x57, 0x28, 0xde, 0x28, 0x4c,
  0x68, 0x20, 0xdd, 0x66, 0x4a, 0x37, 0x7f, 0x0f, 0x3e, 0x64, 0xdc, 0x08,
  0x40, 0x3a, 0x46, 0x13, 0xf0, 0x06, 0x3f, 0xf4, 0xf7, 0x04, 0xf9, 0xd9,
  0xb8, 0x08, 0x2a, 0xdb, 0xfb, 0xfb, 0x04, 0xa6, 0xde, 0xf4, 0x31, 0xd8,
  0xd3, 0xed, 0xf4, 0x81, 0xd6, 0xf9, 0xff, 0xff, 0x04, 0x00, 0x00, 0x00,
  0x10, 0x00, 0x00, 0x00, 0x67, 0xfd, 0xff, 0xff, 0x58, 0x00, 0x00, 0x00,
  0x18, 0xf7, 0xff, 0xff, 0x50, 0x03, 0x00, 0x00, 0xf2, 0xf9, 0xff, 0xff,
  0x04, 0x00, 0x00, 0x00, 0xb0, 0x04, 0x00, 0x00, 0x17, 0xe7, 0x0f, 0xcf,
  0x08, 0xdf, 0x23, 0xc6, 0x0e, 0xf0, 0x13, 0xb8, 0x17, 0xf2, 0x09, 0x81,
  0xfd, 0xc9, 0x04, 0xd0, 0x0a, 0xfa, 0x02, 0xe2, 0x09, 0x09, 0x18, 0xfe,
  0x06, 0xf7, 0x06, 0x03, 0x09, 0xeb, 0x0a, 0x0b, 0x12, 0xfd, 0xfc, 0x0c,
  0xff, 0x03, 0x0b, 0x0d, 0x06, 0xff, 0x05, 0x1f, 0x02, 0xfd, 0x00, 0x14,
  0xfe, 0x0f, 0xf5, 0x11, 0x00, 0xf2, 0x04, 0x1b, 0x0f, 0xf9, 0x03, 0x07,
  0xf2, 0xe4, 0xf5, 0xdb, 0x08, 0xf9, 0xfc, 0xf6, 0x13, 0xcb, 0x07, 0xe0,
  0x0d, 0xce, 0xf3, 0xfa, 0x11, 0xe6, 0xf9, 0xfc, 0xfb, 0xd7, 0xe4, 0xc6,
  0x05, 0xf4, 0xf4, 0x00, 0xf0, 0xe6, 0xe5, 0xe9, 0x05, 0x1a, 0xea, 0xe9,
  0xf1, 0x0f, 0xed, 0xec, 0xd3, 0x03, 0xf4, 0xe1, 0x0b, 0x03, 0xed, 0xed,
  0xfd, 0xfc, 0xe2, 0xe1, 0xfe, 0x1b, 0x0b, 0x00, 0x02, 0x21, 0xf2, 0xf8,
  0xfe, 0x0a, 0x04, 0x0a, 0xfe, 0x07, 0xfe, 0xf5, 0x11, 0x08, 0xff, 0x08,
  0xfe, 0x02, 0x00, 0xf9, 0x09, 0x09, 0xef, 0xe8, 0x0b, 0x1a, 0x02, 0xe9,
  0x05, 0xfe, 0xf8, 0x00, 0xf8, 0xf4, 0xf8, 0xf7, 0x04, 0xf2, 0xf2, 0xfa,
  0xff, 0xf1, 0x12, 0x0c, 0x08, 0x0f, 0x07, 0xf9, 0x0b, 0x0a, 0xfc, 0xf5,
  0xfa, 0x15, 0x24, 0xfb, 0x17, 0x0c, 0x0e, 0x10, 0x12, 0x1e, 0x27, 0x13,
  0x03, 0x0b, 0x15, 0xf6, 0x0f, 0x0c, 0x1c, 0x07, 0x02, 0x01, 0x10, 0x04,
  0x0c, 0x0d, 0x0f, 0xf1, 0x04, 0x0d, 0x0f, 0x03, 0x07, 0x0a, 0x02, 0x06,
  0x02, 0x13, 0xfa, 0x0f, 0x09, 0x10, 0x0c, 0xf7, 0x08, 0x0d, 0x07, 0x00,
  0x00, 0x03, 0x06, 0xf3, 0x03, 0xfe, 0x15, 0xfa, 0x00, 0xfe, 0x1b, 0xfb,
  0x04, 0xf9, 0x1c, 0xf2, 0xf7, 0x0b, 0x12, 0xfc, 0xfc, 0x00, 0xfd, 0xf6,
  0xf1, 0xf2, 0x0c, 0x04, 0x03, 0xf9, 0xf9, 0x08, 0xff, 0xf1, 0xf3, 0x03,
  0xdd, 0x06, 0xf7, 0xee, 0xda, 0xf7, 0xf8, 0xf0, 0xfd, 0xf7, 0xf3, 0xf0,
  0xf9, 0x06, 0xec, 0xf9, 0xe5, 0x0e, 0xef, 0xea, 0xeb, 0xff, 0xfc, 0x01,
  0xed, 0xfd, 0x00, 0x10, 0x00, 0x03, 0xf7, 0x0a, 0xe4, 0x05, 0xf5, 0xfa,
  0xf0, 0x05, 0xfd, 0x07, 0xea, 0x24, 0xe5, 0x13, 0x9d, 0x10, 0x05, 0x03,
  0xcd, 0x20, 0xe3, 0x03, 0xc5, 0x0b, 0xed, 0x11, 0xc0, 0x15, 0xcf, 0x19,
  0xe4, 0x11, 0x08, 0x26, 0xd7, 0x04, 0xd9, 0x1b, 0xc7, 0x0b, 0xdf, 0xff,
  0xec, 0x1a, 0xdb, 0x0c, 0xe4, 0x10, 0xea, 0xff, 0xd0, 0x10, 0xee, 0x10,
  0xd5, 0x08, 0xe0, 0x06, 0xe5, 0x03, 0xd3, 0x1e, 0xe8, 0xfa, 0xfd, 0x0e,
  0xca, 0xef, 0xf8, 0xfe, 0xea, 0x16, 0xf6, 0x17, 0xe7, 0x09, 0xdc, 0x0e,
  0xf8, 0xfa, 0xfe, 0x13, 0x03, 0x0c, 0xe3, 0xf1, 0xf6, 0xfe, 0xdf, 0x02,
  0xcf, 0xfd, 0xf5, 0x08, 0x00, 0x01, 0xf5, 0x1b, 0xe6, 0x14, 0x10, 0xf8,
  0xcc, 0x11, 0x20, 0x1d, 0xea, 0x0b, 0x02, 0x08, 0xfc, 0x0b, 0x24, 0xf8,
  0x05, 0x1c, 0x18, 0xfa, 0x19, 0x02, 0x10, 0xf0, 0x12, 0x01, 0x23, 0xeb,
  0xf4, 0x10, 0x2b, 0xec, 0xf5, 0x2f, 0x2a, 0xda, 0xf3, 0x16, 0x11, 0xfb,
  0xf9, 0x22, 0x24, 0xee, 0x06, 0x28, 0x05, 0x07, 0xd4, 0x24, 0x21, 0xef,
  0xf4, 0x19, 0x16, 0xe9, 0xf4, 0x24, 0xfd, 0x06, 0x0a, 0x28, 0xf5, 0xfb,
  0x0b, 0xfd, 0xf2, 0x0a, 0xf3, 0x0d, 0x0a, 0x12, 0xf4, 0xfd, 0xf9, 0xdf,
  0x00, 0xff, 0xf9, 0x02, 0x0b, 0xf1, 0x15, 0xe4, 0x0b, 0xd7, 0x04, 0x09,
  0x09, 0xed, 0xeb, 0x01, 0x18, 0x07, 0xe2, 0xf4, 0xf1, 0x04, 0xe1, 0x04,
  0xef, 0xf4, 0xe5, 0xdf, 0xff, 0xf0, 0xe0, 0x02, 0xf5, 0xf1, 0xe3, 0xee,
  0x03, 0xea, 0xde, 0xce, 0xfe, 0xfd, 0xf9, 0xda, 0xf8, 0x03, 0xed, 0xda,
  0xef, 0xe6, 0xe7, 0xe9, 0xdc, 0x05, 0xfe, 0xe7, 0xe2, 0x14, 0xf8, 0xe3,
  0xe4, 0x09, 0xf8, 0x0d, 0xda, 0x01, 0xed, 0x00, 0xdd, 0x01, 0xec, 0xde,
  0xde, 0x10, 0xe2, 0x19, 0x02, 0x19, 0xf3, 0xe4, 0x09, 0x05, 0xfd, 0xca,
  0xec, 0x0f, 0xf8, 0xd0, 0xe1, 0x0e, 0xea, 0xe0, 0xd6, 0x1d, 0x0a, 0x02,
  0xe0, 0x0b, 0xe1, 0x03, 0xc5, 0xf8, 0xf5, 0xfb, 0xf1, 0x0f, 0x08, 0xf0,
  0x08, 0xf7, 0x06, 0x0f, 0xd7, 0xf9, 0xff, 0x05, 0xfa, 0x10, 0x00, 0x0b,
  0xf5, 0xfd, 0x0a, 0xf8, 0x13, 0xf7, 0xf6, 0x02, 0x00, 0xf9, 0x01, 0xfb,
  0x0a, 0xf4, 0xfa, 0x07, 0xe9, 0xee, 0xec, 0x08, 0xff, 0x17, 0x10, 0x06,
  0x03, 0x13, 0x1f, 0x20, 0x0f, 0x1b, 0x0a, 0x18, 0x0e, 0x17, 0x0f, 0x4e,
  0x07, 0x0e, 0x0e, 0x26, 0x06, 0x08, 0x0b, 0x27, 0x0e, 0x13, 0x15, 0x03,
  0x07, 0xf6, 0xfc, 0x04, 0xfe, 0x08, 0x05, 0xfb, 0x08, 0xff, 0x0d, 0x06,
  0x03, 0x06, 0x00, 0xf9, 0xfe, 0xfc, 0x03, 0xf6, 0x04, 0x01, 0xed, 0x00,
  0xe1, 0x0f, 0xe9, 0x0d, 0xd3, 0x1b, 0xef, 0xf8, 0xe6, 0x1f, 0xe4, 0x24,
  0xf1, 0x2e, 0xcd, 0x0f, 0xd5, 0x1c, 0x04, 0x23, 0xee, 0x2e, 0xe3, 0x11,
  0xd8, 0x39, 0xf0, 0x03, 0xe4, 0x20, 0xf4, 0xfa, 0x0d, 0x1a, 0xec, 0x2a,
  0xe4, 0x08, 0x12, 0xef, 0xfe, 0x24, 0xff, 0xfb, 0xf9, 0xd9, 0xdb, 0x0d,
  0xda, 0xf2, 0xe1, 0xfb, 0xd0, 0xec, 0xd1, 0x03, 0xe1, 0xff, 0xa9, 0x21,
  0xfe, 0xef, 0xc3, 0x2c, 0xd8, 0xef, 0xbd, 0x2b, 0x05, 0xe8, 0xd5, 0x19,
  0xf7, 0xde, 0xe8, 0x15, 0xf0, 0xc4, 0xfa, 0x17, 0x03, 0xd6, 0xd5, 0x07,
  0xee, 0xe9, 0xe6, 0x25, 0x04, 0xd0, 0xf6, 0x08, 0xee, 0xdf, 0xe2, 0x05,
  0x02, 0xfa, 0x03, 0x0a, 0x05, 0x0e, 0xf9, 0xfd, 0x03, 0x05, 0xee, 0xfe,
  0xef, 0x16, 0xe8, 0x0b, 0xe6, 0xee, 0xe8, 0xfe, 0xed, 0xdb, 0xdb, 0x07,
  0xdf, 0xdf, 0xc9, 0x06, 0xf3, 0xd5, 0xdf, 0xf7, 0x08, 0xcf, 0xdc, 0xff,
  0xfa, 0xcf, 0xdd, 0x03, 0xfc, 0xe9, 0xd7, 0x0a, 0x02, 0xea, 0xef, 0x0e,
  0xe9, 0xff, 0xdd, 0x02, 0x11, 0xf5, 0xf7, 0x15, 0x07, 0xf5, 0xe8, 0x0b,
  0x0f, 0xe8, 0xfe, 0x0e, 0x0a, 0xf8, 0x05, 0x13, 0x05, 0xf1, 0xeb, 0xfd,
  0x09, 0xf2, 0xfc, 0xff, 0xf9, 0xfd, 0xfa, 0xfd, 0x12, 0xf5, 0xf1, 0xfb,
  0x12, 0xf2, 0xff, 0xfe, 0x15, 0xf1, 0xf2, 0x16, 0x04, 0xfd, 0xe2, 0x0a,
  0x01, 0xf1, 0xf4, 0x1b, 0x0d, 0x01, 0xe5, 0xfe, 0x05, 0xf0, 0x04, 0x10,
  0x0a, 0xfc, 0xfb, 0x0a, 0x07, 0x0d, 0xfd, 0x2b, 0x08, 0xf3, 0x14, 0x22,
  0xfd, 0x0c, 0x0b, 0x1d, 0x00, 0xf1, 0xfd, 0x1e, 0x0b, 0x11, 0x03, 0x1b,
  0xfe, 0xfc, 0x0b, 0xfc, 0xff, 0xfe, 0x05, 0x18, 0xfa, 0xfc, 0x0a, 0x0e,
  0x10, 0x01, 0x13, 0xfd, 0xff, 0x08, 0x13, 0x02, 0xb7, 0x0a, 0xed, 0x0b,
  0xdf, 0xf1, 0xe3, 0xda, 0xd0, 0x05, 0xeb, 0x08, 0xe0, 0xfe, 0xdd, 0xd7,
  0xf6, 0xfd, 0x07, 0xbe, 0xe1, 0xfc, 0x0b, 0xc9, 0xe3, 0xf9, 0x09, 0x90,
  0xef, 0xef, 0xfd, 0xa0, 0x03, 0xf3, 0xe8, 0xa1, 0xf8, 0xf4, 0xf3, 0x9b,
  0xe6, 0xfe, 0xeb, 0xe0, 0x1e, 0x09, 0x14, 0xc0, 0xf6, 0x0f, 0x0e, 0xbd,
  0x24, 0xff, 0x06, 0xb3, 0x1e, 0xf2, 0xfe, 0xbb, 0x0c, 0xfc, 0x0e, 0xc7,
  0x24, 0xfb, 0x22, 0xce, 0x15, 0xd7, 0x05, 0xde, 0x08, 0x03, 0x24, 0xd8,
  0x20, 0xf5, 0x16, 0xff, 0x13, 0xfa, 0x06, 0xe3, 0x09, 0x05, 0xff, 0xea,
  0x1a, 0xf1, 0x23, 0xfa, 0x1e, 0x10, 0x04, 0x40, 0x24, 0xf1, 0x24, 0x13,
  0x11, 0xf2, 0x21, 0x16, 0x2a, 0xf8, 0x1d, 0x3c, 0x22, 0xe4, 0x14, 0x26,
  0xfe, 0xd6, 0x18, 0x29, 0x08, 0xc1, 0x0d, 0x15, 0x02, 0xcc, 0x0b, 0xf6,
  0xfb, 0xd7, 0x02, 0xc5, 0xf8, 0xe0, 0x08, 0xdc, 0x15, 0x03, 0x10, 0x07,
  0xef, 0x01, 0x03, 0x0b, 0x03, 0xf8, 0xf4, 0x07, 0xe6, 0xe9, 0x0e, 0x08,
  0xf0, 0xf0, 0xf9, 0x15, 0xf2, 0xfa, 0xfa, 0x07, 0xfe, 0xfe, 0x1b, 0x18,
  0xfd, 0xf1, 0x23, 0xef, 0xf6, 0x14, 0x0c, 0xf8, 0x09, 0x06, 0x0b, 0xe3,
  0x12, 0x0e, 0x25, 0x00, 0xf8, 0x09, 0x15, 0x0b, 0xf8, 0x1a, 0x1d, 0x11,
  0x11, 0x11, 0x14, 0x21, 0x0b, 0xf1, 0x1c, 0x02, 0x07, 0xfb, 0x1a, 0xfc,
  0x11, 0x13, 0x11, 0x14, 0x19, 0x17, 0x0b, 0x0e, 0xf7, 0x02, 0x07, 0x23,
  0xec, 0x0c, 0xf1, 0x0a, 0x01, 0x01, 0xfc, 0xfc, 0xf7, 0x02, 0xd7, 0x14,
  0xfd, 0xfa, 0xef, 0xff, 0x0c, 0x00, 0xfe, 0x05, 0x04, 0xf8, 0xf9, 0x0a,
  0xf3, 0x0d, 0x02, 0xff, 0xff, 0x07, 0x0d, 0x0b, 0x07, 0x0a, 0x08, 0x18,
  0x12, 0xe0, 0x09, 0x12, 0x06, 0x00, 0xfc, 0x07, 0x0b, 0xff, 0x04, 0xfa,
  0x19, 0x05, 0x13, 0xe7, 0x07, 0xed, 0x11, 0xd8, 0x13, 0xff, 0x0f, 0xd7,
  0xf9, 0xe1, 0xfa, 0xeb, 0x0d, 0xf4, 0xf6, 0xe4, 0x02, 0xea, 0x05, 0xec,
  0x08, 0xec, 0x0a, 0x06, 0x05, 0xee, 0x03, 0xd3, 0x0f, 0xe3, 0x08, 0xd1,
  0x06, 0xec, 0x02, 0xd7, 0x11, 0xf7, 0x09, 0xc6, 0xae, 0xfe, 0xff, 0xff,
  0x04, 0x00, 0x00, 0x00, 0x10, 0x00, 0x00, 0x00, 0x00, 0xfe, 0xff, 0xff,
  0x04, 0xfd, 0xff, 0xff, 0x7a, 0x03, 0x00, 0x00, 0x7b, 0x00, 0x00, 0x00,
  0xca, 0xfe, 0xff, 0xff, 0x04, 0x00, 0x00, 0x00, 0x08, 0x00, 0x00, 0x00,
  0xff, 0xff, 0xff, 0xff, 0x2c, 0x01, 0x00, 0x00, 0xde, 0xfe, 0xff, 0xff,
  0x04, 0x00, 0x00, 0x00, 0x04, 0x00, 0x00, 0x00, 0x02, 0x00, 0x00, 0x00,
  0xee, 0xfe, 0xff, 0xff, 0x04, 0x00, 0x00, 0x00, 0x0c, 0x00, 0x00, 0x00,
  0xff, 0xff, 0xff, 0xff, 0x96, 0x00, 0x00, 0x00, 0x04, 0x00, 0x00, 0x00,
  0x06, 0xff, 0xff, 0xff, 0x04, 0x00, 0x00, 0x00, 0x0c, 0x00, 0x00, 0x00,
  0xff, 0xff, 0xff, 0xff, 0x96, 0x00, 0x00, 0x00, 0x08, 0x00, 0x00, 0x00,
  0x1e, 0xff, 0xff, 0xff, 0x04, 0x00, 0x00, 0x00, 0x04, 0x00, 0x00, 0x00,
  0xfd, 0xff, 0xff, 0xff, 0x44, 0xea, 0xff, 0xff, 0x48, 0xea, 0xff, 0xff,
  0x0f, 0x00, 0x00, 0x00, 0x4d, 0x4c, 0x49, 0x52, 0x20, 0x43, 0x6f, 0x6e,
  0x76, 0x65, 0x72, 0x74, 0x65, 0x64, 0x2e, 0x00, 0x01, 0x00, 0x00, 0x00,
  0x14, 0x00, 0x00, 0x00, 0x00, 0x00, 0x0e, 0x00, 0x18, 0x00, 0x14, 0x00,
  0x10, 0x00, 0x0c, 0x00, 0x08, 0x00, 0x04, 0x00, 0x0e, 0x00, 0x00, 0x00,
  0x14, 0x00, 0x00, 0x00, 0x1c, 0x00, 0x00, 0x00, 0x60, 0x03, 0x00, 0x00,
  0x64, 0x03, 0x00, 0x00, 0x68, 0x03, 0x00, 0x00, 0x04, 0x00, 0x00, 0x00,
  0x6d, 0x61, 0x69, 0x6e, 0x00, 0x00, 0x00, 0x00, 0x0f, 0x00, 0x00, 0x00,
  0x28, 0x03, 0x00, 0x00, 0xe8, 0x02, 0x00, 0x00, 0xa4, 0x02, 0x00, 0x00,
  0x70, 0x02, 0x00, 0x00, 0x20, 0x02, 0x00, 0x00, 0xf8, 0x01, 0x00, 0x00,
  0xb8, 0x01, 0x00, 0x00, 0x74, 0x01, 0x00, 0x00, 0x4c, 0x01, 0x00, 0x00,
  0x18, 0x01, 0x00, 0x00, 0xc4, 0x00, 0x00, 0x00, 0x9c, 0x00, 0x00, 0x00,
  0x64, 0x00, 0x00, 0x00, 0x28, 0x00, 0x00, 0x00, 0x04, 0x00, 0x00, 0x00,
  0x3a, 0xfe, 0xff, 0xff, 0x0c, 0x00, 0x00, 0x00, 0x10, 0x00, 0x00, 0x00,
  0x09, 0x00, 0x00, 0x00, 0x01, 0x00, 0x00, 0x00, 0x1c, 0x00, 0x00, 0x00,
  0x01, 0x00, 0x00, 0x00, 0x1b, 0x00, 0x00, 0x00, 0x7e, 0xfd, 0xff, 0xff,
  0x1c, 0x00, 0x00, 0x00, 0x00, 0x00, 0x00, 0x09, 0x1c, 0x00, 0x00, 0x00,
  0x20, 0x00, 0x00, 0x00, 0x08, 0x00, 0x00, 0x00, 0x00, 0x00, 0x06, 0x00,
  0x08, 0x00, 0x04, 0x00, 0x06, 0x00, 0x00, 0x00, 0x00, 0x00, 0x80, 0x3f,
  0x01, 0x00, 0x00, 0x00, 0x1b, 0x00, 0x00, 0x00, 0x01, 0x00, 0x00, 0x00,
  0x1a, 0x00, 0x00, 0x00, 0xb6, 0xfd, 0xff, 0xff, 0x14, 0x00, 0x00, 0x00,
  0x00, 0x00, 0x00, 0x08, 0x10, 0x00, 0x00, 0x00, 0x14, 0x00, 0x00, 0x00,
  0x07, 0x00, 0x00, 0x00, 0x4c, 0xeb, 0xff, 0xff, 0x01, 0x00, 0x00, 0x00,
  0x1a, 0x00, 0x00, 0x00, 0x03, 0x00, 0x00, 0x00, 0x19, 0x00, 0x00, 0x00,
  0x07, 0x00, 0x00, 0x00, 0x06, 0x00, 0x00, 0x00, 0xc6, 0xfe, 0xff, 0xff,
  0x0c, 0x00, 0x00, 0x00, 0x10, 0x00, 0x00, 0x00, 0x05, 0x00, 0x00, 0x00,
  0x01, 0x00, 0x00, 0x00, 0x19, 0x00, 0x00, 0x00, 0x02, 0x00, 0x00, 0x00,
  0x18, 0x00, 0x00, 0x00, 0x05, 0x00, 0x00, 0x00, 0x0e, 0xfe, 0xff, 0xff,
  0x24, 0x00, 0x00, 0x00, 0x00, 0x00, 0x00, 0x05, 0x34, 0x00, 0x00, 0x00,
  0x38, 0x00, 0x00, 0x00, 0x06, 0x00, 0x00, 0x00, 0x00, 0x00, 0x0e, 0x00,
  0x18, 0x00, 0x17, 0x00, 0x10, 0x00, 0x0c, 0x00, 0x08, 0x00, 0x04, 0x00,
  0x0e, 0x00, 0x00, 0x00, 0x02, 0x00, 0x00, 0x00, 0x01, 0x00, 0x00, 0x00,
  0x02, 0x00, 0x00, 0x00, 0x01, 0x00, 0x00, 0x00, 0x00, 0x00, 0x00, 0x01,
  0x01, 0x00, 0x00, 0x00, 0x18, 0x00, 0x00, 0x00, 0x01, 0x00, 0x00, 0x00,
  0x17, 0x00, 0x00, 0x00, 0x5e, 0xfe, 0xff, 0xff, 0x14, 0x00, 0x00, 0x00,
  0x00, 0x00, 0x00, 0x34, 0x10, 0x00, 0x00, 0x00, 0x14, 0x00, 0x00, 0x00,
  0x03, 0x00, 0x00, 0x00, 0xf4, 0xeb, 0xff, 0xff, 0x01, 0x00, 0x00, 0x00,
  0x17, 0x00, 0x00, 0x00, 0x02, 0x00, 0x00, 0x00, 0x16, 0x00, 0x00, 0x00,
  0x04, 0x00, 0x00, 0x00, 0x6a, 0xff, 0xff, 0xff, 0x0c, 0x00, 0x00, 0x00,
  0x10, 0x00, 0x00, 0x00, 0x05, 0x00, 0x00, 0x00, 0x01, 0x00, 0x00, 0x00,
  0x16, 0x00, 0x00, 0x00, 0x02, 0x00, 0x00, 0x00, 0x15, 0x00, 0x00, 0x00,
  0x03, 0x00, 0x00, 0x00, 0xb2, 0xfe, 0xff, 0xff, 0x14, 0x00, 0x00, 0x00,
  0x00, 0x00, 0x00, 0x01, 0x1c, 0x00, 0x00, 0x00, 0x20, 0x00, 0x00, 0x00,
  0x04, 0x00, 0x00, 0x00, 0x60, 0xff, 0xff, 0xff, 0x00, 0x00, 0x00, 0x01,
  0x01, 0x00, 0x00, 0x00, 0x01, 0x00, 0x00, 0x00, 0x01, 0x00, 0x00, 0x00,
  0x15, 0x00, 0x00, 0x00, 0x03, 0x00, 0x00, 0x00, 0x14, 0x00, 0x00, 0x00,
  0x09, 0x00, 0x00, 0x00, 0x08, 0x00, 0x00, 0x00, 0xf2, 0xfe, 0xff, 0xff,
  0x14, 0x00, 0x00, 0x00, 0x00, 0x00, 0x00, 0x34, 0x10, 0x00, 0x00, 0x00,
  0x14, 0x00, 0x00, 0x00, 0x03, 0x00, 0x00, 0x00, 0x88, 0xec, 0xff, 0xff,
  0x01, 0x00, 0x00, 0x00, 0x14, 0x00, 0x00, 0x00, 0x02, 0x00, 0x00, 0x00,
  0x13, 0x00, 0x00, 0x00, 0x01, 0x00, 0x00, 0x00, 0x00, 0x00, 0x0a, 0x00,
  0x10, 0x00, 0x0c, 0x00, 0x08, 0x00, 0x04, 0x00, 0x0a, 0x00, 0x00, 0x00,
  0x0c, 0x00, 0x00, 0x00, 0x10, 0x00, 0x00, 0x00, 0x05, 0x00, 0x00, 0x00,
  0x01, 0x00, 0x00, 0x00, 0x13, 0x00, 0x00, 0x00, 0x02, 0x00, 0x00, 0x00,
  0x12, 0x00, 0x00, 0x00, 0x02, 0x00, 0x00, 0x00, 0x52, 0xff, 0xff, 0xff,
  0x20, 0x00, 0x00, 0x00, 0x00, 0x00, 0x00, 0x01, 0x28, 0x00, 0x00, 0x00,
  0x2c, 0x00, 0x00, 0x00, 0x04, 0x00, 0x00, 0x00, 0x0c, 0x00, 0x10, 0x00,
  0x00, 0x00, 0x0c, 0x00, 0x08, 0x00, 0x07, 0x00, 0x0c, 0x00, 0x00, 0x00,
  0x00, 0x00, 0x00, 0x01, 0x01, 0x00, 0x00, 0x00, 0x02, 0x00, 0x00, 0x00,
  0x01, 0x00, 0x00, 0x00, 0x12, 0x00, 0x00, 0x00, 0x03, 0x00, 0x00, 0x00,
  0x11, 0x00, 0x00, 0x00, 0x0b, 0x00, 0x00, 0x00, 0x0a, 0x00, 0x00, 0x00,
  0x9e, 0xff, 0xff, 0xff, 0x14, 0x00, 0x00, 0x00, 0x00, 0x00, 0x00, 0x34,
  0x10, 0x00, 0x00, 0x00, 0x14, 0x00, 0x00, 0x00, 0x03, 0x00, 0x00, 0x00,
  0x34, 0xed, 0xff, 0xff, 0x01, 0x00, 0x00, 0x00, 0x11, 0x00, 0x00, 0x00,
  0x02, 0x00, 0x00, 0x00, 0x10, 0x00, 0x00, 0x00, 0x01, 0x00, 0x00, 0x00,
  0xce, 0xff, 0xff, 0xff, 0x14, 0x00, 0x00, 0x00, 0x00, 0x00, 0x00, 0x15,
  0x10, 0x00, 0x00, 0x00, 0x14, 0x00, 0x00, 0x00, 0x02, 0x00, 0x00, 0x00,
  0x64, 0xed, 0xff, 0xff, 0x01, 0x00, 0x00, 0x00, 0x10, 0x00, 0x00, 0x00,
  0x02, 0x00, 0x00, 0x00, 0x0f, 0x00, 0x00, 0x00, 0x0c, 0x00, 0x00, 0x00,
  0x00, 0x00, 0x0e, 0x00, 0x18, 0x00, 0x14, 0x00, 0x10, 0x00, 0x0c, 0x00,
  0x0b, 0x00, 0x04, 0x00, 0x0e, 0x00, 0x00, 0x00, 0x14, 0x00, 0x00, 0x00,
  0x00, 0x00, 0x00, 0x1c, 0x10, 0x00, 0x00, 0x00, 0x14, 0x00, 0x00, 0x00,
  0x01, 0x00, 0x00, 0x00, 0xa4, 0xed, 0xff, 0xff, 0x01, 0x00, 0x00, 0x00,
  0x0f, 0x00, 0x00, 0x00, 0x02, 0x00, 0x00, 0x00, 0x0e, 0x00, 0x00, 0x00,
  0x0d, 0x00, 0x00, 0x00, 0x00, 0x00, 0x0a, 0x00, 0x0c, 0x00, 0x00, 0x00,
  0x08, 0x00, 0x04, 0x00, 0x0a, 0x00, 0x00, 0x00, 0x08, 0x00, 0x00, 0x00,
  0x0c, 0x00, 0x00, 0x00, 0x01, 0x00, 0x00, 0x00, 0x0e, 0x00, 0x00, 0x00,
  0x01, 0x00, 0x00, 0x00, 0x00, 0x00, 0x00, 0x00, 0x01, 0x00, 0x00, 0x00,
  0x1c, 0x00, 0x00, 0x00, 0x01, 0x00, 0x00, 0x00, 0x00, 0x00, 0x00, 0x00,
  0x1d, 0x00, 0x00, 0x00, 0xdc, 0x11, 0x00, 0x00, 0x64, 0x11, 0x00, 0x00,
  0xf0, 0x10, 0x00, 0x00, 0x94, 0x10, 0x00, 0x00, 0x34, 0x10, 0x00, 0x00,
  0xe0, 0x0f, 0x00, 0x00, 0x50, 0x0f, 0x00, 0x00, 0xd8, 0x0e, 0x00, 0x00,
  0x34, 0x0e, 0x00, 0x00, 0x90, 0x0d, 0x00, 0x00, 0xbc, 0x0c, 0x00, 0x00,
  0xe8, 0x0b, 0x00, 0x00, 0x44, 0x0b, 0x00, 0x00, 0xd0, 0x0a, 0x00, 0x00,
  0x58, 0x0a, 0x00, 0x00, 0xb4, 0x09, 0x00, 0x00, 0xf8, 0x08, 0x00, 0x00,
  0x58, 0x08, 0x00, 0x00, 0x24, 0x07, 0x00, 0x00, 0x1c, 0x06, 0x00, 0x00,
  0x7c, 0x05, 0x00, 0x00, 0x48, 0x04, 0x00, 0x00, 0x40, 0x03, 0x00, 0x00,
  0xa0, 0x02, 0x00, 0x00, 0x04, 0x02, 0x00, 0x00, 0x80, 0x01, 0x00, 0x00,
  0xdc, 0x00, 0x00, 0x00, 0x60, 0x00, 0x00, 0x00, 0x04, 0x00, 0x00, 0x00,
  0xae, 0xee, 0xff, 0xff, 0x00, 0x00, 0x00, 0x01, 0x14, 0x00, 0x00, 0x00,
  0x1c, 0x00, 0x00, 0x00, 0x1c, 0x00, 0x00, 0x00, 0x1d, 0x00, 0x00, 0x00,
  0x34, 0x00, 0x00, 0x00, 0x02, 0x00, 0x00, 0x00, 0xff, 0xff, 0xff, 0xff,
  0x04, 0x00, 0x00, 0x00, 0x94, 0xee, 0xff, 0xff, 0x19, 0x00, 0x00, 0x00,
  0x53, 0x74, 0x61, 0x74, 0x65, 0x66, 0x75, 0x6c, 0x50, 0x61, 0x72, 0x74,
  0x69, 0x74, 0x69, 0x6f, 0x6e, 0x65, 0x64, 0x43, 0x61, 0x6c, 0x6c, 0x3a,
  0x30, 0x00, 0x00, 0x00, 0x02, 0x00, 0x00, 0x00, 0x01, 0x00, 0x00, 0x00,
  0x04, 0x00, 0x00, 0x00, 0x52, 0xf6, 0xff, 0xff, 0x00, 0x00, 0x00, 0x01,
  0x18, 0x00, 0x00, 0x00, 0x20, 0x00, 0x00, 0x00, 0x3c, 0x00, 0x00, 0x00,
  0x1c, 0x00, 0x00, 0x00, 0x00, 0x00, 0x00, 0x09, 0x50, 0x00, 0x00, 0x00,
  0x02, 0x00, 0x00, 0x00, 0xff, 0xff, 0xff, 0xff, 0x04, 0x00, 0x00, 0x00,
  0x74, 0xf1, 0xff, 0xff, 0x08, 0x00, 0x00, 0x00, 0x10, 0x00, 0x00, 0x00,
  0x01, 0x00, 0x00, 0x00, 0x80, 0xff, 0xff, 0xff, 0xff, 0xff, 0xff, 0xff,
  0x01, 0x00, 0x00, 0x00, 0x00, 0x00, 0x80, 0x3b, 0x1a, 0x00, 0x00, 0x00,
  0x53, 0x74, 0x61, 0x74, 0x65, 0x66, 0x75, 0x6c, 0x50, 0x61, 0x72, 0x74,
  0x69, 0x74, 0x69, 0x6f, 0x6e, 0x65, 0x64, 0x43, 0x61, 0x6c, 0x6c, 0x3a,
  0x30, 0x31, 0x00, 0x00, 0x02, 0x00, 0x00, 0x00, 0x01, 0x00, 0x00, 0x00,
  0x04, 0x00, 0x00, 0x00, 0xca, 0xf6, 0xff, 0xff, 0x00, 0x00, 0x00, 0x01,
  0x18, 0x00, 0x00, 0x00, 0x20, 0x00, 0x00, 0x00, 0x3c, 0x00, 0x00, 0x00,
  0x1b, 0x00, 0x00, 0x00, 0x00, 0x00, 0x00, 0x09, 0x78, 0x00, 0x00, 0x00,
  0x02, 0x00, 0x00, 0x00, 0xff, 0xff, 0xff, 0xff, 0x04, 0x00, 0x00, 0x00,
  0xec, 0xf1, 0xff, 0xff, 0x08, 0x00, 0x00, 0x00, 0x10, 0x00, 0x00, 0x00,
  0x01, 0x00, 0x00, 0x00, 0x1f, 0x00, 0x00, 0x00, 0x00, 0x00, 0x00, 0x00,
  0x01, 0x00, 0x00, 0x00, 0xe4, 0xa9, 0xec, 0x3e, 0x42, 0x00, 0x00, 0x00,
  0x69, 0x6d, 0x75, 0x5f, 0x6d, 0x6f, 0x64, 0x65, 0x6c, 0x5f, 0x73, 0x6d,
  0x61, 0x6c, 0x6c, 0x5f, 0x32, 0x2f, 0x64, 0x65, 0x6e, 0x73, 0x65, 0x5f,
  0x32, 0x2f, 0x4d, 0x61, 0x74, 0x4d, 0x75, 0x6c, 0x3b, 0x69, 0x6d, 0x75,
  0x5f, 0x6d, 0x6f, 0x64, 0x65, 0x6c, 0x5f, 0x73, 0x6d, 0x61, 0x6c, 0x6c,
  0x5f, 0x32, 0x2f, 0x64, 0x65, 0x6e, 0x73, 0x65, 0x5f, 0x32, 0x2f, 0x42,
  0x69, 0x61, 0x73, 0x41, 0x64, 0x64, 0x00, 0x00, 0x02, 0x00, 0x00, 0x00,
  0x01, 0x00, 0x00, 0x00, 0x04, 0x00, 0x00, 0x00, 0x6a, 0xf7, 0xff, 0xff,
  0x00, 0x00, 0x00, 0x01, 0x18, 0x00, 0x00, 0x00, 0x20, 0x00, 0x00, 0x00,
  0x3c, 0x00, 0x00, 0x00, 0x1a, 0x00, 0x00, 0x00, 0x00, 0x00, 0x00, 0x09,
  0x58, 0x00, 0x00, 0x00, 0x02, 0x00, 0x00, 0x00, 0xff, 0xff, 0xff, 0xff,
  0x2c, 0x01, 0x00, 0x00, 0x8c, 0xf2, 0xff, 0xff, 0x08, 0x00, 0x00, 0x00,
  0x10, 0x00, 0x00, 0x00, 0x01, 0x00, 0x00, 0x00, 0x80, 0xff, 0xff, 0xff,
  0xff, 0xff, 0xff, 0xff, 0x01, 0x00, 0x00, 0x00, 0x49, 0x5d, 0x9d, 0x3d,
  0x23, 0x00, 0x00, 0x00, 0x69, 0x6d, 0x75, 0x5f, 0x6d, 0x6f, 0x64, 0x65,
  0x6c, 0x5f, 0x73, 0x6d, 0x61, 0x6c, 0x6c, 0x5f, 0x32, 0x2f, 0x66, 0x6c,
  0x61, 0x74, 0x74, 0x65, 0x6e, 0x5f, 0x32, 0x2f, 0x52, 0x65, 0x73, 0x68,
  0x61, 0x70, 0x65, 0x00, 0x02, 0x00, 0x00, 0x00, 0x01, 0x00, 0x00, 0x00,
  0x2c, 0x01, 0x00, 0x00, 0xea, 0xf7, 0xff, 0xff, 0x00, 0x00, 0x00, 0x01,
  0x18, 0x00, 0x00, 0x00, 0x28, 0x00, 0x00, 0x00, 0x44, 0x00, 0x00, 0x00,
  0x19, 0x00, 0x00, 0x00, 0x00, 0x00, 0x00, 0x09, 0x68, 0x00, 0x00, 0x00,
  0x04, 0x00, 0x00, 0x00, 0xff, 0xff, 0xff, 0xff, 0x4b, 0x00, 0x00, 0x00,
  0x01, 0x00, 0x00, 0x00, 0x04, 0x00, 0x00, 0x00, 0x14, 0xf3, 0xff, 0xff,
  0x08, 0x00, 0x00, 0x00, 0x10, 0x00, 0x00, 0x00, 0x01, 0x00, 0x00, 0x00,
  0x80, 0xff, 0xff, 0xff, 0xff, 0xff, 0xff, 0xff, 0x01, 0x00, 0x00, 0x00,
  0x49, 0x5d, 0x9d, 0x3d, 0x29, 0x00, 0x00, 0x00, 0x69, 0x6d, 0x75, 0x5f,
  0x6d, 0x6f, 0x64, 0x65, 0x6c, 0x5f, 0x73, 0x6d, 0x61, 0x6c, 0x6c, 0x5f,
  0x32, 0x2f, 0x6d, 0x61, 0x78, 0x5f, 0x70, 0x6f, 0x6f, 0x6c, 0x69, 0x6e,
  0x67, 0x31, 0x64, 0x5f, 0x32, 0x2f, 0x4d, 0x61, 0x78, 0x50, 0x6f, 0x6f,
  0x6c, 0x00, 0x00, 0x00, 0x04, 0x00, 0x00, 0x00, 0x01, 0x00, 0x00, 0x00,
  0x4b, 0x00, 0x00, 0x00, 0x01, 0x00, 0x00, 0x00, 0x04, 0x00, 0x00, 0x00,
  0x82, 0xf8, 0xff, 0xff, 0x00, 0x00, 0x00, 0x01, 0x18, 0x00, 0x00, 0x00,
  0x28, 0x00, 0x00, 0x00, 0x44, 0x00, 0x00, 0x00, 0x18, 0x00, 0x00, 0x00,
  0x00, 0x00, 0x00, 0x09, 0x6c, 0x00, 0x00, 0x00, 0x04, 0x00, 0x00, 0x00,
  0xff, 0xff, 0xff, 0xff, 0x96, 0x00, 0x00, 0x00, 0x01, 0x00, 0x00, 0x00,
  0x04, 0x00, 0x00, 0x00, 0xac, 0xf3, 0xff, 0xff, 0x08, 0x00, 0x00, 0x00,
  0x10, 0x00, 0x00, 0x00, 0x01, 0x00, 0x00, 0x00, 0x80, 0xff, 0xff, 0xff,
  0xff, 0xff, 0xff, 0xff, 0x01, 0x00, 0x00, 0x00, 0x49, 0x5d, 0x9d, 0x3d,
  0x2c, 0x00, 0x00, 0x00, 0x69, 0x6d, 0x75, 0x5f, 0x6d, 0x6f, 0x64, 0x65,
  0x6c, 0x5f, 0x73, 0x6d, 0x61, 0x6c, 0x6c, 0x5f, 0x32, 0x2f, 0x6d, 0x61,
  0x78, 0x5f, 0x70, 0x6f, 0x6f, 0x6c, 0x69, 0x6e, 0x67, 0x31, 0x64, 0x5f,
  0x32, 0x2f, 0x45, 0x78, 0x70, 0x61, 0x6e, 0x64, 0x44, 0x69, 0x6d, 0x73,
  0x00, 0x00, 0x00, 0x00, 0x04, 0x00, 0x00, 0x00, 0x01, 0x00, 0x00, 0x00,
  0x96, 0x00, 0x00, 0x00, 0x01, 0x00, 0x00, 0x00, 0x04, 0x00, 0x00, 0x00,
  0x1e, 0xf9, 0xff, 0xff, 0x00, 0x00, 0x00, 0x01, 0x18, 0x00, 0x00, 0x00,
  0x24, 0x00, 0x00, 0x00, 0x40, 0x00, 0x00, 0x00, 0x17, 0x00, 0x00, 0x00,
  0x00, 0x00, 0x00, 0x09, 0xd8, 0x00, 0x00, 0x00, 0x03, 0x00, 0x00, 0x00,
  0xff, 0xff, 0xff, 0xff, 0x96, 0x00, 0x00, 0x00, 0x04, 0x00, 0x00, 0x00,
  0x44, 0xf4, 0xff, 0xff, 0x08, 0x00, 0x00, 0x00, 0x10, 0x00, 0x00, 0x00,
  0x01, 0x00, 0x00, 0x00, 0x80, 0xff, 0xff, 0xff, 0xff, 0xff, 0xff, 0xff,
  0x01, 0x00, 0x00, 0x00, 0x49, 0x5d, 0x9d, 0x3d, 0x9e, 0x00, 0x00, 0x00,
  0x69, 0x6d, 0x75, 0x5f, 0x6d, 0x6f, 0x64, 0x65, 0x6c, 0x5f, 0x73, 0x6d,
  0x61, 0x6c, 0x6c, 0x5f, 0x32, 0x2f, 0x63, 0x6f, 0x6e, 0x76, 0x31, 0x64,
  0x5f, 0x35, 0x2f, 0x52, 0x65, 0x6c, 0x75, 0x3b, 0x69, 0x6d, 0x75, 0x5f,
  0x6d, 0x6f, 0x64, 0x65, 0x6c, 0x5f, 0x73, 0x6d, 0x61, 0x6c, 0x6c, 0x5f,
  0x32, 0x2f, 0x63, 0x6f, 0x6e, 0x76, 0x31, 0x64, 0x5f, 0x35, 0x2f, 0x42,
  0x69, 0x61, 0x73, 0x41, 0x64, 0x64, 0x3b, 0x69, 0x6d, 0x75, 0x5f, 0x6d,
  0x6f, 0x64, 0x65, 0x6c, 0x5f, 0x73, 0x6d, 0x61, 0x6c, 0x6c, 0x5f, 0x32,
  0x2f, 0x63, 0x6f, 0x6e, 0x76, 0x31, 0x64, 0x5f, 0x35, 0x2f, 0x43, 0x6f,
  0x6e, 0x76, 0x31, 0x44, 0x2f, 0x53, 0x71, 0x75, 0x65, 0x65, 0x7a, 0x65,
  0x3b, 0x69, 0x6d, 0x75, 0x5f, 0x6d, 0x6f, 0x64, 0x65, 0x6c, 0x5f, 0x73,
  0x6d, 0x61, 0x6c, 0x6c, 0x5f, 0x32, 0x2f, 0x63, 0x6f, 0x6e, 0x76, 0x31,
  0x64, 0x5f, 0x35, 0x2f, 0x42, 0x69, 0x61, 0x73, 0x41, 0x64, 0x64, 0x2f,
  0x52, 0x65, 0x61, 0x64, 0x56, 0x61, 0x72, 0x69, 0x61, 0x62, 0x6c, 0x65,
  0x4f, 0x70, 0x00, 0x00, 0x03, 0x00, 0x00, 0x00, 0x01, 0x00, 0x00, 0x00,
  0x96, 0x00, 0x00, 0x00, 0x04, 0x00, 0x00, 0x00, 0x22, 0xfa, 0xff, 0xff,
  0x00, 0x00, 0x00, 0x01, 0x18, 0x00, 0x00, 0x00, 0x28, 0x00, 0x00, 0x00,
  0x44, 0x00, 0x00, 0x00, 0x16, 0x00, 0x00, 0x00, 0x00, 0x00, 0x00, 0x09,
  0x00, 0x01, 0x00, 0x00, 0x04, 0x00, 0x00, 0x00, 0xff, 0xff, 0xff, 0xff,
  0x01, 0x00, 0x00, 0x00, 0x96, 0x00, 0x00, 0x00, 0x04, 0x00, 0x00, 0x00,
  0x4c, 0xf5, 0xff, 0xff, 0x08, 0x00, 0x00, 0x00, 0x10, 0x00, 0x00, 0x00,
  0x01, 0x00, 0x00, 0x00, 0x80, 0xff, 0xff, 0xff, 0xff, 0xff, 0xff, 0xff,
  0x01, 0x00, 0x00, 0x00, 0x49, 0x5d, 0x9d, 0x3d, 0xc0, 0x00, 0x00, 0x00,
  0x69, 0x6d, 0x75, 0x5f, 0x6d, 0x6f, 0x64, 0x65, 0x6c, 0x5f, 0x73, 0x6d,
  0x61, 0x6c, 0x6c, 0x5f, 0x32, 0x2f, 0x63, 0x6f, 0x6e, 0x76, 0x31, 0x64,
  0x5f, 0x35, 0x2f, 0x52, 0x65, 0x6c, 0x75, 0x3b, 0x69, 0x6d, 0x75, 0x5f,
  0x6d, 0x6f, 0x64, 0x65, 0x6c, 0x5f, 0x73, 0x6d, 0x61, 0x6c, 0x6c, 0x5f,
  0x32, 0x2f, 0x63, 0x6f, 0x6e, 0x76, 0x31, 0x64, 0x5f, 0x35, 0x2f, 0x42,
  0x69, 0x61, 0x73, 0x41, 0x64, 0x64, 0x3b, 0x69, 0x6d, 0x75, 0x5f, 0x6d,
  0x6f, 0x64, 0x65, 0x6c, 0x5f, 0x73, 0x6d, 0x61, 0x6c, 0x6c, 0x5f, 0x32,
  0x2f, 0x63, 0x6f, 0x6e, 0x76, 0x31, 0x64, 0x5f, 0x35, 0x2f, 0x43, 0x6f,
  0x6e, 0x76, 0x31, 0x44, 0x2f, 0x53, 0x71, 0x75, 0x65, 0x65, 0x7a, 0x65,
  0x3b, 0x69, 0x6d, 0x75, 0x5f, 0x6d, 0x6f, 0x64, 0x65, 0x6c, 0x5f, 0x73,
  0x6d, 0x61, 0x6c, 0x6c, 0x5f, 0x32, 0x2f, 0x63, 0x6f, 0x6e, 0x76, 0x31,
  0x64, 0x5f, 0x35, 0x2f, 0x42, 0x69, 0x61, 0x73, 0x41, 0x64, 0x64, 0x2f,
  0x52, 0x65, 0x61, 0x64, 0x56, 0x61, 0x72, 0x69, 0x61, 0x62, 0x6c, 0x65,
  0x4f, 0x70, 0x3b, 0x69, 0x6d, 0x75, 0x5f, 0x6d, 0x6f, 0x64, 0x65, 0x6c,
  0x5f, 0x73, 0x6d, 0x61, 0x6c, 0x6c, 0x5f, 0x32, 0x2f, 0x63, 0x6f, 0x6e,
  0x76, 0x31, 0x64, 0x5f, 0x35, 0x2f, 0x43, 0x6f, 0x6e, 0x76, 0x31, 0x44,
  0x00, 0x00, 0x00, 0x00, 0x04, 0x00, 0x00, 0x00, 0x01, 0x00, 0x00, 0x00,
  0x01, 0x00, 0x00, 0x00, 0x96, 0x00, 0x00, 0x00, 0x04, 0x00, 0x00, 0x00,
  0x52, 0xfb, 0xff, 0xff, 0x00, 0x00, 0x00, 0x01, 0x18, 0x00, 0x00, 0x00,
  0x28, 0x00, 0x00, 0x00, 0x44, 0x00, 0x00, 0x00, 0x15, 0x00, 0x00, 0x00,
  0x00, 0x00, 0x00, 0x09, 0x6c, 0x00, 0x00, 0x00, 0x04, 0x00, 0x00, 0x00,
  0xff, 0xff, 0xff, 0xff, 0x01, 0x00, 0x00, 0x00, 0x96, 0x00, 0x00, 0x00,
  0x08, 0x00, 0x00, 0x00, 0x7c, 0xf6, 0xff, 0xff, 0x08, 0x00, 0x00, 0x00,
  0x10, 0x00, 0x00, 0x00, 0x01, 0x00, 0x00, 0x00, 0x80, 0xff, 0xff, 0xff,
  0xff, 0xff, 0xff, 0xff, 0x01, 0x00, 0x00, 0x00, 0x72, 0x26, 0x7d, 0x3d,
  0x2c, 0x00, 0x00, 0x00, 0x69, 0x6d, 0x75, 0x5f, 0x6d, 0x6f, 0x64, 0x65,
  0x6c, 0x5f, 0x73, 0x6d, 0x61, 0x6c, 0x6c, 0x5f, 0x32, 0x2f, 0x63, 0x6f,
  0x6e, 0x76, 0x31, 0x64, 0x5f, 0x35, 0x2f, 0x43, 0x6f, 0x6e, 0x76, 0x31,
  0x44, 0x2f, 0x45, 0x78, 0x70, 0x61, 0x6e, 0x64, 0x44, 0x69, 0x6d, 0x73,
  0x00, 0x00, 0x00, 0x00, 0x04, 0x00, 0x00, 0x00, 0x01, 0x00, 0x00, 0x00,
  0x01, 0x00, 0x00, 0x00, 0x96, 0x00, 0x00, 0x00, 0x08, 0x00, 0x00, 0x00,
  0xee, 0xfb, 0xff, 0xff, 0x00, 0x00, 0x00, 0x01, 0x18, 0x00, 0x00, 0x00,
  0x24, 0x00, 0x00, 0x00, 0x40, 0x00, 0x00, 0x00, 0x14, 0x00, 0x00, 0x00,
  0x00, 0x00, 0x00, 0x09, 0xd8, 0x00, 0x00, 0x00, 0x03, 0x00, 0x00, 0x00,
  0xff, 0xff, 0xff, 0xff, 0x96, 0x00, 0x00, 0x00, 0x08, 0x00, 0x00, 0x00,
  0x14, 0xf7, 0xff, 0xff, 0x08, 0x00, 0x00, 0x00, 0x10, 0x00, 0x00, 0x00,
  0x01, 0x00, 0x00, 0x00, 0x80, 0xff, 0xff, 0xff, 0xff, 0xff, 0xff, 0xff,
  0x01, 0x00, 0x00, 0x00, 0x72, 0x26, 0x7d, 0x3d, 0x9e, 0x00, 0x00, 0x00,
  0x69, 0x6d, 0x75, 0x5f, 0x6d, 0x6f, 0x64, 0x65, 0x6c, 0x5f, 0x73, 0x6d,
  0x61, 0x6c, 0x6c, 0x5f, 0x32, 0x2f, 0x63, 0x6f, 0x6e, 0x76, 0x31, 0x64,
  0x5f, 0x34, 0x2f, 0x52, 0x65, 0x6c, 0x75, 0x3b, 0x69, 0x6d, 0x75, 0x5f,
  0x6d, 0x6f, 0x64, 0x65, 0x6c, 0x5f, 0x73, 0x6d, 0x61, 0x6c, 0x6c, 0x5f,
  0x32, 0x2f, 0x63, 0x6f, 0x6e, 0x76, 0x31, 0x64, 0x5f, 0x34, 0x2f, 0x42,
  0x69, 0x61, 0x73, 0x41, 0x64, 0x64, 0x3b, 0x69, 0x6d, 0x75, 0x5f, 0x6d,
  0x6f, 0x64, 0x65, 0x6c, 0x5f, 0x73, 0x6d, 0x61, 0x6c, 0x6c, 0x5f, 0x32,
  0x2f, 0x63, 0x6f, 0x6e, 0x76, 0x31, 0x64, 0x5f, 0x34, 0x2f, 0x43, 0x6f,
  0x6e, 0x76, 0x31, 0x44, 0x2f, 0x53, 0x71, 0x75, 0x65, 0x65, 0x7a, 0x65,
  0x3b, 0x69, 0x6d, 0x75, 0x5f, 0x6d, 0x6f, 0x64, 0x65, 0x6c, 0x5f, 0x73,
  0x6d, 0x61, 0x6c, 0x6c, 0x5f, 0x32, 0x2f, 0x63, 0x6f, 0x6e, 0x76, 0x31,
  0x64, 0x5f, 0x34, 0x2f, 0x42, 0x69, 0x61, 0x73, 0x41, 0x64, 0x64, 0x2f,
  0x52, 0x65, 0x61, 0x64, 0x56, 0x61, 0x72, 0x69, 0x61, 0x62, 0x6c, 0x65,
  0x4f, 0x70, 0x00, 0x00, 0x03, 0x00, 0x00, 0x00, 0x01, 0x00, 0x00, 0x00,
  0x96, 0x00, 0x00, 0x00, 0x08, 0x00, 0x00, 0x00, 0xf2, 0xfc, 0xff, 0xff,
  0x00, 0x00, 0x00, 0x01, 0x18, 0x00, 0x00, 0x00, 0x28, 0x00, 0x00, 0x00,
  0x44, 0x00, 0x00, 0x00, 0x13, 0x00, 0x00, 0x00, 0x00, 0x00, 0x00, 0x09,
  0x00, 0x01, 0x00, 0x00, 0x04, 0x00, 0x00, 0x00, 0xff, 0xff, 0xff, 0xff,
  0x01, 0x00, 0x00, 0x00, 0x96, 0x00, 0x00, 0x00, 0x08, 0x00, 0x00, 0x00,
  0x1c, 0xf8, 0xff, 0xff, 0x08, 0x00, 0x00, 0x00, 0x10, 0x00, 0x00, 0x00,
  0x01, 0x00, 0x00, 0x00, 0x80, 0xff, 0xff, 0xff, 0xff, 0xff, 0xff, 0xff,
  0x01, 0x00, 0x00, 0x00, 0x72, 0x26, 0x7d, 0x3d, 0xc0, 0x00, 0x00, 0x00,
  0x69, 0x6d, 0x75, 0x5f, 0x6d, 0x6f, 0x64, 0x65, 0x6c, 0x5f, 0x73, 0x6d,
  0x61, 0x6c, 0x6c, 0x5f, 0x32, 0x2f, 0x63, 0x6f, 0x6e, 0x76, 0x31, 0x64,
  0x5f, 0x34, 0x2f, 0x52, 0x65, 0x6c, 0x75, 0x3b, 0x69, 0x6d, 0x75, 0x5f,
  0x6d, 0x6f, 0x64, 0x65, 0x6c, 0x5f, 0x73, 0x6d, 0x61, 0x6c, 0x6c, 0x5f,
  0x32, 0x2f, 0x63, 0x6f, 0x6e, 0x76, 0x31, 0x64, 0x5f, 0x34, 0x2f, 0x42,
  0x69, 0x61, 0x73, 0x41, 0x64, 0x64, 0x3b, 0x69, 0x6d, 0x75, 0x5f, 0x6d,
  0x6f, 0x64, 0x65, 0x6c, 0x5f, 0x73, 0x6d, 0x61, 0x6c, 0x6c, 0x5f, 0x32,
  0x2f, 0x63, 0x6f, 0x6e, 0x76, 0x31, 0x64, 0x5f, 0x34, 0x2f, 0x43, 0x6f,
  0x6e, 0x76, 0x31, 0x44, 0x2f, 0x53, 0x71, 0x75, 0x65, 0x65, 0x7a, 0x65,
  0x3b, 0x69, 0x6d, 0x75, 0x5f, 0x6d, 0x6f, 0x64, 0x65, 0x6c, 0x5f, 0x73,
  0x6d, 0x61, 0x6c, 0x6c, 0x5f, 0x32, 0x2f, 0x63, 0x6f, 0x6e, 0x76, 0x31,
  0x64, 0x5f, 0x34, 0x2f, 0x42, 0x69, 0x61, 0x73, 0x41, 0x64, 0x64, 0x2f,
  0x52, 0x65, 0x61, 0x64, 0x56, 0x61, 0x72, 0x69, 0x61, 0x62, 0x6c, 0x65,
  0x4f, 0x70, 0x3b, 0x69, 0x6d, 0x75, 0x5f, 0x6d, 0x6f, 0x64, 0x65, 0x6c,
  0x5f, 0x73, 0x6d, 0x61, 0x6c, 0x6c, 0x5f, 0x32, 0x2f, 0x63, 0x6f, 0x6e,
  0x76, 0x31, 0x64, 0x5f, 0x34, 0x2f, 0x43, 0x6f, 0x6e, 0x76, 0x31, 0x44,
  0x00, 0x00, 0x00, 0x00, 0x04, 0x00, 0x00, 0x00, 0x01, 0x00, 0x00, 0x00,
  0x01, 0x00, 0x00, 0x00, 0x96, 0x00, 0x00, 0x00, 0x08, 0x00, 0x00, 0x00,
  0x22, 0xfe, 0xff, 0xff, 0x00, 0x00, 0x00, 0x01, 0x18, 0x00, 0x00, 0x00,
  0x28, 0x00, 0x00, 0x00, 0x44, 0x00, 0x00, 0x00, 0x12, 0x00, 0x00, 0x00,
  0x00, 0x00, 0x00, 0x09, 0x6c, 0x00, 0x00, 0x00, 0x04, 0x00, 0x00, 0x00,
  0xff, 0xff, 0xff, 0xff, 0x01, 0x00, 0x00, 0x00, 0x2c, 0x01, 0x00, 0x00,
  0x06, 0x00, 0x00, 0x00, 0x4c, 0xf9, 0xff, 0xff, 0x08, 0x00, 0x00, 0x00,
  0x10, 0x00, 0x00, 0x00, 0x01, 0x00, 0x00, 0x00, 0x06, 0x00, 0x00, 0x00,
  0x00, 0x00, 0x00, 0x00, 0x01, 0x00, 0x00, 0x00, 0x06, 0xd2, 0x91, 0x3d,
  0x2c, 0x00, 0x00, 0x00, 0x69, 0x6d, 0x75, 0x5f, 0x6d, 0x6f, 0x64, 0x65,
  0x6c, 0x5f, 0x73, 0x6d, 0x61, 0x6c, 0x6c, 0x5f, 0x32, 0x2f, 0x63, 0x6f,
  0x6e, 0x76, 0x31, 0x64, 0x5f, 0x34, 0x2f, 0x43, 0x6f, 0x6e, 0x76, 0x31,
  0x44, 0x2f, 0x45, 0x78, 0x70, 0x61, 0x6e, 0x64, 0x44, 0x69, 0x6d, 0x73,
  0x00, 0x00, 0x00, 0x00, 0x04, 0x00, 0x00, 0x00, 0x01, 0x00, 0x00, 0x00,
  0x01, 0x00, 0x00, 0x00, 0x2c, 0x01, 0x00, 0x00, 0x06, 0x00, 0x00, 0x00,
  0xbe, 0xfe, 0xff, 0xff, 0x00, 0x00, 0x00, 0x01, 0x18, 0x00, 0x00, 0x00,
  0x24, 0x00, 0x00, 0x00, 0x44, 0x00, 0x00, 0x00, 0x11, 0x00, 0x00, 0x00,
  0x00, 0x00, 0x00, 0x09, 0x8c, 0x00, 0x00, 0x00, 0x03, 0x00, 0x00, 0x00,
  0xff, 0xff, 0xff, 0xff, 0x2c, 0x01, 0x00, 0x00, 0x06, 0x00, 0x00, 0x00,
  0xe4, 0xf9, 0xff, 0xff, 0x08, 0x00, 0x00, 0x00, 0x14, 0x00, 0x00, 0x00,
  0x01, 0x00, 0x00, 0x00, 0x06, 0x00, 0x00, 0x00, 0x00, 0x00, 0x00, 0x00,
  0x00, 0x00, 0x00, 0x00, 0x01, 0x00, 0x00, 0x00, 0x06, 0xd2, 0x91, 0x3d,
  0x4e, 0x00, 0x00, 0x00, 0x69, 0x6d, 0x75, 0x5f, 0x6d, 0x6f, 0x64, 0x65,
  0x6c, 0x5f, 0x73, 0x6d, 0x61, 0x6c, 0x6c, 0x5f, 0x32, 0x2f, 0x6e, 0x6f,
  0x72, 0x6d, 0x61, 0x6c, 0x69, 0x7a, 0x65, 0x5f, 0x32, 0x2f, 0x74, 0x72,
  0x75, 0x65, 0x64, 0x69, 0x76, 0x3b, 0x69, 0x6d, 0x75, 0x5f, 0x6d, 0x6f,
  0x64, 0x65, 0x6c, 0x5f, 0x73, 0x6d, 0x61, 0x6c, 0x6c, 0x5f, 0x32, 0x2f,
  0x6e, 0x6f, 0x72, 0x6d, 0x61, 0x6c, 0x69, 0x7a, 0x65, 0x5f, 0x32, 0x2f,
  0x74, 0x72, 0x75, 0x65, 0x64, 0x69, 0x76, 0x2f, 0x79, 0x31, 0x00, 0x00,
  0x03, 0x00, 0x00, 0x00, 0x01, 0x00, 0x00, 0x00, 0x2c, 0x01, 0x00, 0x00,
  0x06, 0x00, 0x00, 0x00, 0x76, 0xff, 0xff, 0xff, 0x00, 0x00, 0x00, 0x01,
  0x18, 0x00, 0x00, 0x00, 0x24, 0x00, 0x00, 0x00, 0x40, 0x00, 0x00, 0x00,
  0x10, 0x00, 0x00, 0x00, 0x00, 0x00, 0x00, 0x09, 0x5c, 0x00, 0x00, 0x00,
  0x03, 0x00, 0x00, 0x00, 0xff, 0xff, 0xff, 0xff, 0x2c, 0x01, 0x00, 0x00,
  0x06, 0x00, 0x00, 0x00, 0x9c, 0xfa, 0xff, 0xff, 0x08, 0x00, 0x00, 0x00,
  0x10, 0x00, 0x00, 0x00, 0x01, 0x00, 0x00, 0x00, 0x01, 0x00, 0x00, 0x00,
  0x00, 0x00, 0x00, 0x00, 0x01, 0x00, 0x00, 0x00, 0x09, 0xd0, 0x7f, 0x41,
  0x21, 0x00, 0x00, 0x00, 0x69, 0x6d, 0x75, 0x5f, 0x6d, 0x6f, 0x64, 0x65,
  0x6c, 0x5f, 0x73, 0x6d, 0x61, 0x6c, 0x6c, 0x5f, 0x32, 0x2f, 0x6e, 0x6f,
  0x72, 0x6d, 0x61, 0x6c, 0x69, 0x7a, 0x65, 0x5f, 0x32, 0x2f, 0x73, 0x75,
  0x62, 0x00, 0x00, 0x00, 0x03, 0x00, 0x00, 0x00, 0x01, 0x00, 0x00, 0x00,
  0x2c, 0x01, 0x00, 0x00, 0x06, 0x00, 0x00, 0x00, 0x00, 0x00, 0x16, 0x00,
  0x20, 0x00, 0x1c, 0x00, 0x1b, 0x00, 0x14, 0x00, 0x10, 0x00, 0x0c, 0x00,
  0x00, 0x00, 0x00, 0x00, 0x08, 0x00, 0x07, 0x00, 0x16, 0x00, 0x00, 0x00,
  0x00, 0x00, 0x00, 0x01, 0x18, 0x00, 0x00, 0x00, 0x24, 0x00, 0x00, 0x00,
  0x40, 0x00, 0x00, 0x00, 0x0f, 0x00, 0x00, 0x00, 0x00, 0x00, 0x00, 0x09,
  0x48, 0x00, 0x00, 0x00, 0x03, 0x00, 0x00, 0x00, 0xff, 0xff, 0xff, 0xff,
  0x2c, 0x01, 0x00, 0x00, 0x06, 0x00, 0x00, 0x00, 0x3c, 0xfb, 0xff, 0xff,
  0x08, 0x00, 0x00, 0x00, 0x10, 0x00, 0x00, 0x00, 0x01, 0x00, 0x00, 0x00,
  0x00, 0x00, 0x00, 0x00, 0x00, 0x00, 0x00, 0x00, 0x01, 0x00, 0x00, 0x00,
  0x5a, 0xe8, 0x7a, 0x41, 0x0c, 0x00, 0x00, 0x00, 0x74, 0x66, 0x6c, 0x2e,
  0x71, 0x75, 0x61, 0x6e, 0x74, 0x69, 0x7a, 0x65, 0x00, 0x00, 0x00, 0x00,
  0x03, 0x00, 0x00, 0x00, 0x01, 0x00, 0x00, 0x00, 0x2c, 0x01, 0x00, 0x00,
  0x06, 0x00, 0x00, 0x00, 0xb2, 0xf9, 0xff, 0xff, 0x00, 0x00, 0x00, 0x01,
  0x14, 0x00, 0x00, 0x00, 0x30, 0x00, 0x00, 0x00, 0x0e, 0x00, 0x00, 0x00,
  0x00, 0x00, 0x00, 0x09, 0x4c, 0x00, 0x00, 0x00, 0x9c, 0xfb, 0xff, 0xff,
  0x08, 0x00, 0x00, 0x00, 0x10, 0x00, 0x00, 0x00, 0x01, 0x00, 0x00, 0x00,
  0xc2, 0xff, 0xff, 0xff, 0xff, 0xff, 0xff, 0xff, 0x01, 0x00, 0x00, 0x00,
  0x3e, 0xd7, 0xa4, 0x3e, 0x23, 0x00, 0x00, 0x00, 0x69, 0x6d, 0x75, 0x5f,
  0x6d, 0x6f, 0x64, 0x65, 0x6c, 0x5f, 0x73, 0x6d, 0x61, 0x6c, 0x6c, 0x5f,
  0x32, 0x2f, 0x6e, 0x6f, 0x72, 0x6d, 0x61, 0x6c, 0x69, 0x7a, 0x65, 0x5f,
  0x32, 0x2f, 0x73, 0x75, 0x62, 0x2f, 0x79, 0x00, 0x02, 0x00, 0x00, 0x00,
  0x2c, 0x01, 0x00, 0x00, 0x01, 0x00, 0x00, 0x00, 0x22, 0xfa, 0xff, 0xff,
  0x00, 0x00, 0x00, 0x01, 0x14, 0x00, 0x00, 0x00, 0x34, 0x00, 0x00, 0x00,
  0x0d, 0x00, 0x00, 0x00, 0x00, 0x00, 0x00, 0x09, 0x7c, 0x00, 0x00, 0x00,
  0x0c, 0xfc, 0xff, 0xff, 0x08, 0x00, 0x00, 0x00, 0x14, 0x00, 0x00, 0x00,
  0x01, 0x00, 0x00, 0x00, 0x80, 0xff, 0xff, 0xff, 0xff, 0xff, 0xff, 0xff,
  0x00, 0x00, 0x00, 0x00, 0x01, 0x00, 0x00, 0x00, 0x63, 0x73, 0x1d, 0x38,
  0x4d, 0x00, 0x00, 0x00, 0x69, 0x6d, 0x75, 0x5f, 0x6d, 0x6f, 0x64, 0x65,
  0x6c, 0x5f, 0x73, 0x6d, 0x61, 0x6c, 0x6c, 0x5f, 0x32, 0x2f, 0x6e, 0x6f,
  0x72, 0x6d, 0x61, 0x6c, 0x69, 0x7a, 0x65, 0x5f, 0x32, 0x2f, 0x74, 0x72,
  0x75, 0x65, 0x64, 0x69, 0x76, 0x3b, 0x69, 0x6d, 0x75, 0x5f, 0x6d, 0x6f,
  0x64, 0x65, 0x6c, 0x5f, 0x73, 0x6d, 0x61, 0x6c, 0x6c, 0x5f, 0x32, 0x2f,
  0x6e, 0x6f, 0x72, 0x6d, 0x61, 0x6c, 0x69, 0x7a, 0x65, 0x5f, 0x32, 0x2f,
  0x74, 0x72, 0x75, 0x65, 0x64, 0x69, 0x76, 0x2f, 0x79, 0x00, 0x00, 0x00,
  0x02, 0x00, 0x00, 0x00, 0x2c, 0x01, 0x00, 0x00, 0x01, 0x00, 0x00, 0x00,
  0xc2, 0xfa, 0xff, 0xff, 0x00, 0x00, 0x00, 0x01, 0x14, 0x00, 0x00, 0x00,
  0x88, 0x00, 0x00, 0x00, 0x0c, 0x00, 0x00, 0x00, 0x00, 0x00, 0x00, 0x09,
  0xa4, 0x00, 0x00, 0x00, 0xac, 0xfc, 0xff, 0xff, 0x08, 0x00, 0x00, 0x00,
  0x4c, 0x00, 0x00, 0x00, 0x08, 0x00, 0x00, 0x00, 0x00, 0x00, 0x00, 0x00,
  0x00, 0x00, 0x00, 0x00, 0x00, 0x00, 0x00, 0x00, 0x00, 0x00, 0x00, 0x00,
  0x00, 0x00, 0x00, 0x00, 0x00, 0x00, 0x00, 0x00, 0x00, 0x00, 0x00, 0x00,
  0x00, 0x00, 0x00, 0x00, 0x00, 0x00, 0x00, 0x00, 0x00, 0x00, 0x00, 0x00,
  0x00, 0x00, 0x00, 0x00, 0x00, 0x00, 0x00, 0x00, 0x00, 0x00, 0x00, 0x00,
  0x00, 0x00, 0x00, 0x00, 0x00, 0x00, 0x00, 0x00, 0x00, 0x00, 0x00, 0x00,
  0x00, 0x00, 0x00, 0x00, 0x08, 0x00, 0x00, 0x00, 0xe6, 0x9c, 0x06, 0x3c,
  0x51, 0x6f, 0x85, 0x3b, 0x49, 0xbe, 0xbc, 0x3b, 0xc1, 0xad, 0x88, 0x3b,
  0x94, 0xe4, 0x7b, 0x3b, 0x42, 0x3b, 0x7c, 0x3b, 0xf9, 0x9b, 0xdd, 0x3b,
  0x49, 0x7c, 0x1a, 0x3c, 0x21, 0x00, 0x00, 0x00, 0x69, 0x6d, 0x75, 0x5f,
  0x6d, 0x6f, 0x64, 0x65, 0x6c, 0x5f, 0x73, 0x6d, 0x61, 0x6c, 0x6c, 0x5f,
  0x32, 0x2f, 0x63, 0x6f, 0x6e, 0x76, 0x31, 0x64, 0x5f, 0x34, 0x2f, 0x43,
  0x6f, 0x6e, 0x76, 0x31, 0x44, 0x00, 0x00, 0x00, 0x04, 0x00, 0x00, 0x00,
  0x08, 0x00, 0x00, 0x00, 0x01, 0x00, 0x00, 0x00, 0x03, 0x00, 0x00, 0x00,
  0x06, 0x00, 0x00, 0x00, 0x92, 0xfb, 0xff, 0xff, 0x00, 0x00, 0x00, 0x01,
  0x14, 0x00, 0x00, 0x00, 0x84, 0x00, 0x00, 0x00, 0x0b, 0x00, 0x00, 0x00,
  0x00, 0x00, 0x00, 0x02, 0xb0, 0x00, 0x00, 0x00, 0x7c, 0xfd, 0xff, 0xff,
  0x08, 0x00, 0x00, 0x00, 0x48, 0x00, 0x00, 0x00, 0x08, 0x00, 0x00, 0x00,
  0x00, 0x00, 0x00, 0x00, 0x00, 0x00, 0x00, 0x00, 0x00, 0x00, 0x00, 0x00,
  0x00, 0x00, 0x00, 0x00, 0x00, 0x00, 0x00, 0x00, 0x00, 0x00, 0x00, 0x00,
  0x00, 0x00, 0x00, 0x00, 0x00, 0x00, 0x00, 0x00, 0x00, 0x00, 0x00, 0x00,
  0x00, 0x00, 0x00, 0x00, 0x00, 0x00, 0x00, 0x00, 0x00, 0x00, 0x00, 0x00,
  0x00, 0x00, 0x00, 0x00, 0x00, 0x00, 0x00, 0x00, 0x00, 0x00, 0x00, 0x00,
  0x00, 0x00, 0x00, 0x00, 0x08, 0x00, 0x00, 0x00, 0x9c, 0x5a, 0x19, 0x3a,
  0x0b, 0x03, 0x98, 0x39, 0x40, 0x05, 0xd7, 0x39, 0x18, 0xb5, 0x9b, 0x39,
  0x1f, 0x7b, 0x8f, 0x39, 0x7f, 0xac, 0x8f, 0x39, 0x4e, 0x76, 0xfc, 0x39,
  0x46, 0xfe, 0x2f, 0x3a, 0x31, 0x00, 0x00, 0x00, 0x69, 0x6d, 0x75, 0x5f,
  0x6d, 0x6f, 0x64, 0x65, 0x6c, 0x5f, 0x73, 0x6d, 0x61, 0x6c, 0x6c, 0x5f,
  0x32, 0x2f, 0x63, 0x6f, 0x6e, 0x76, 0x31, 0x64, 0x5f, 0x34, 0x2f, 0x42,
  0x69, 0x61, 0x73, 0x41, 0x64, 0x64, 0x2f, 0x52, 0x65, 0x61, 0x64, 0x56,
  0x61, 0x72, 0x69, 0x61, 0x62, 0x6c, 0x65, 0x4f, 0x70, 0x00, 0x00, 0x00,
  0x01, 0x00, 0x00, 0x00, 0x08, 0x00, 0x00, 0x00, 0x62, 0xfc, 0xff, 0xff,
  0x00, 0x00, 0x00, 0x01, 0x14, 0x00, 0x00, 0x00, 0x58, 0x00, 0x00, 0x00,
  0x0a, 0x00, 0x00, 0x00, 0x00, 0x00, 0x00, 0x09, 0x74, 0x00, 0x00, 0x00,
  0x4c, 0xfe, 0xff, 0xff, 0x08, 0x00, 0x00, 0x00, 0x2c, 0x00, 0x00, 0x00,
  0x04, 0x00, 0x00, 0x00, 0x00, 0x00, 0x00, 0x00, 0x00, 0x00, 0x00, 0x00,
  0x00, 0x00, 0x00, 0x00, 0x00, 0x00, 0x00, 0x00, 0x00, 0x00, 0x00, 0x00,
  0x00, 0x00, 0x00, 0x00, 0x00, 0x00, 0x00, 0x00, 0x00, 0x00, 0x00, 0x00,
  0x00, 0x00, 0x00, 0x00, 0x04, 0x00, 0x00, 0x00, 0xa8, 0xa0, 0x8b, 0x3b,
  0xce, 0xe3, 0x88, 0x3b, 0x0e, 0x83, 0x88, 0x3b, 0x86, 0x5e, 0x18, 0x3c,
  0x21, 0x00, 0x00, 0x00, 0x69, 0x6d, 0x75, 0x5f, 0x6d, 0x6f, 0x64, 0x65,
  0x6c, 0x5f, 0x73, 0x6d, 0x61, 0x6c, 0x6c, 0x5f, 0x32, 0x2f, 0x63, 0x6f,
  0x6e, 0x76, 0x31, 0x64, 0x5f, 0x35, 0x2f, 0x43, 0x6f, 0x6e, 0x76, 0x31,
  0x44, 0x00, 0x00, 0x00, 0x04, 0x00, 0x00, 0x00, 0x04, 0x00, 0x00, 0x00,
  0x01, 0x00, 0x00, 0x00, 0x03, 0x00, 0x00, 0x00, 0x08, 0x00, 0x00, 0x00,
  0x02, 0xfd, 0xff, 0xff, 0x00, 0x00, 0x00, 0x01, 0x14, 0x00, 0x00, 0x00,
  0x54, 0x00, 0x00, 0x00, 0x09, 0x00, 0x00, 0x00, 0x00, 0x00, 0x00, 0x02,
  0x80, 0x00, 0x00, 0x00, 0xec, 0xfe, 0xff, 0xff, 0x08, 0x00, 0x00, 0x00,
  0x28, 0x00, 0x00, 0x00, 0x04, 0x00, 0x00, 0x00, 0x00, 0x00, 0x00, 0x00,
  0x00, 0x00, 0x00, 0x00, 0x00, 0x00, 0x00, 0x00, 0x00, 0x00, 0x00, 0x00,
  0x00, 0x00, 0x00, 0x00, 0x00, 0x00, 0x00, 0x00, 0x00, 0x00, 0x00, 0x00,
  0x00, 0x00, 0x00, 0x00, 0x04, 0x00, 0x00, 0x00, 0xbe, 0x12, 0x8a, 0x39,
  0xb1, 0x5d, 0x87, 0x39, 0x05, 0xfe, 0x86, 0x39, 0x4c, 0xac, 0x16, 0x3a,
  0x31, 0x00, 0x00, 0x00, 0x69, 0x6d, 0x75, 0x5f, 0x6d, 0x6f, 0x64, 0x65,
  0x6c, 0x5f, 0x73, 0x6d, 0x61, 0x6c, 0x6c, 0x5f, 0x32, 0x2f, 0x63, 0x6f,
  0x6e, 0x76, 0x31, 0x64, 0x5f, 0x35, 0x2f, 0x42, 0x69, 0x61, 0x73, 0x41,
  0x64, 0x64, 0x2f, 0x52, 0x65, 0x61, 0x64, 0x56, 0x61, 0x72, 0x69, 0x61,
  0x62, 0x6c, 0x65, 0x4f, 0x70, 0x00, 0x00, 0x00, 0x01, 0x00, 0x00, 0x00,
  0x04, 0x00, 0x00, 0x00, 0xa2, 0xfd, 0xff, 0xff, 0x00, 0x00, 0x00, 0x01,
  0x14, 0x00, 0x00, 0x00, 0x34, 0x00, 0x00, 0x00, 0x08, 0x00, 0x00, 0x00,
  0x00, 0x00, 0x00, 0x09, 0x50, 0x00, 0x00, 0x00, 0x8c, 0xff, 0xff, 0xff,
  0x08, 0x00, 0x00, 0x00, 0x14, 0x00, 0x00, 0x00, 0x01, 0x00, 0x00, 0x00,
  0x00, 0x00, 0x00, 0x00, 0x00, 0x00, 0x00, 0x00, 0x00, 0x00, 0x00, 0x00,
  0x01, 0x00, 0x00, 0x00, 0xca, 0x1d, 0xf7, 0x3b, 0x20, 0x00, 0x00, 0x00,
  0x69, 0x6d, 0x75, 0x5f, 0x6d, 0x6f, 0x64, 0x65, 0x6c, 0x5f, 0x73, 0x6d,
  0x61, 0x6c, 0x6c, 0x5f, 0x32, 0x2f, 0x64, 0x65, 0x6e, 0x73, 0x65, 0x5f,
  0x32, 0x2f, 0x4d, 0x61, 0x74, 0x4d, 0x75, 0x6c, 0x00, 0x00, 0x00, 0x00,
  0x02, 0x00, 0x00, 0x00, 0x04, 0x00, 0x00, 0x00, 0x2c, 0x01, 0x00, 0x00,
  0x16, 0xfe, 0xff, 0xff, 0x00, 0x00, 0x00, 0x01, 0x20, 0x00, 0x00, 0x00,
  0x40, 0x00, 0x00, 0x00, 0x07, 0x00, 0x00, 0x00, 0x00, 0x00, 0x00, 0x02,
  0x6c, 0x00, 0x00, 0x00, 0x0c, 0x00, 0x0c, 0x00, 0x00, 0x00, 0x00, 0x00,
  0x08, 0x00, 0x04, 0x00, 0x0c, 0x00, 0x00, 0x00, 0x08, 0x00, 0x00, 0x00,
  0x14, 0x00, 0x00, 0x00, 0x01, 0x00, 0x00, 0x00, 0x00, 0x00, 0x00, 0x00,
  0x00, 0x00, 0x00, 0x00, 0x00, 0x00, 0x00, 0x00, 0x01, 0x00, 0x00, 0x00,
  0x51, 0xe7, 0x17, 0x3a, 0x30, 0x00, 0x00, 0x00, 0x69, 0x6d, 0x75, 0x5f,
  0x6d, 0x6f, 0x64, 0x65, 0x6c, 0x5f, 0x73, 0x6d, 0x61, 0x6c, 0x6c, 0x5f,
  0x32, 0x2f, 0x64, 0x65, 0x6e, 0x73, 0x65, 0x5f, 0x32, 0x2f, 0x42, 0x69,
  0x61, 0x73, 0x41, 0x64, 0x64, 0x2f, 0x52, 0x65, 0x61, 0x64, 0x56, 0x61,
  0x72, 0x69, 0x61, 0x62, 0x6c, 0x65, 0x4f, 0x70, 0x00, 0x00, 0x00, 0x00,
  0x01, 0x00, 0x00, 0x00, 0x04, 0x00, 0x00, 0x00, 0xa2, 0xfe, 0xff, 0xff,
  0x00, 0x00, 0x00, 0x01, 0x14, 0x00, 0x00, 0x00, 0x14, 0x00, 0x00, 0x00,
  0x06, 0x00, 0x00, 0x00, 0x00, 0x00, 0x00, 0x02, 0x30, 0x00, 0x00, 0x00,
  0x08, 0xfe, 0xff, 0xff, 0x21, 0x00, 0x00, 0x00, 0x69, 0x6d, 0x75, 0x5f,
  0x6d, 0x6f, 0x64, 0x65, 0x6c, 0x5f, 0x73, 0x6d, 0x61, 0x6c, 0x6c, 0x5f,
  0x32, 0x2f, 0x66, 0x6c, 0x61, 0x74, 0x74, 0x65, 0x6e, 0x5f, 0x32, 0x2f,
  0x43, 0x6f, 0x6e, 0x73, 0x74, 0x00, 0x00, 0x00, 0x01, 0x00, 0x00, 0x00,
  0x02, 0x00, 0x00, 0x00, 0xf2, 0xfe, 0xff, 0xff, 0x00, 0x00, 0x00, 0x01,
  0x14, 0x00, 0x00, 0x00, 0x14, 0x00, 0x00, 0x00, 0x05, 0x00, 0x00, 0x00,
  0x00, 0x00, 0x00, 0x02, 0x40, 0x00, 0x00, 0x00, 0x58, 0xfe, 0xff, 0xff,
  0x30, 0x00, 0x00, 0x00, 0x69, 0x6d, 0x75, 0x5f, 0x6d, 0x6f, 0x64, 0x65,
  0x6c, 0x5f, 0x73, 0x6d, 0x61, 0x6c, 0x6c, 0x5f, 0x32, 0x2f, 0x6d, 0x61,
  0x78, 0x5f, 0x70, 0x6f, 0x6f, 0x6c, 0x69, 0x6e, 0x67, 0x31, 0x64, 0x5f,
  0x32, 0x2f, 0x45, 0x78, 0x70, 0x61, 0x6e, 0x64, 0x44, 0x69, 0x6d, 0x73,
  0x2f, 0x64, 0x69, 0x6d, 0x00, 0x00, 0x00, 0x00, 0x00, 0x00, 0x00, 0x00,
  0x4e, 0xff, 0xff, 0xff, 0x00, 0x00, 0x00, 0x01, 0x14, 0x00, 0x00, 0x00,
  0x14, 0x00, 0x00, 0x00, 0x04, 0x00, 0x00, 0x00, 0x00, 0x00, 0x00, 0x02,
  0x38, 0x00, 0x00, 0x00, 0xb4, 0xfe, 0xff, 0xff, 0x29, 0x00, 0x00, 0x00,
  0x69, 0x6d, 0x75, 0x5f, 0x6d, 0x6f, 0x64, 0x65, 0x6c, 0x5f, 0x73, 0x6d,
  0x61, 0x6c, 0x6c, 0x5f, 0x32, 0x2f, 0x63, 0x6f, 0x6e, 0x76, 0x31, 0x64,
  0x5f, 0x35, 0x2f, 0x43, 0x6f, 0x6e, 0x76, 0x31, 0x44, 0x2f, 0x53, 0x71,
  0x75, 0x65, 0x65, 0x7a, 0x65, 0x00, 0x00, 0x00, 0x01, 0x00, 0x00, 0x00,
  0x03, 0x00, 0x00, 0x00, 0xa6, 0xff, 0xff, 0xff, 0x00, 0x00, 0x00, 0x01,
  0x14, 0x00, 0x00, 0x00, 0x14, 0x00, 0x00, 0x00, 0x03, 0x00, 0x00, 0x00,
  0x00, 0x00, 0x00, 0x02, 0x38, 0x00, 0x00, 0x00, 0x0c, 0xff, 0xff, 0xff,
  0x29, 0x00, 0x00, 0x00, 0x69, 0x6d, 0x75, 0x5f, 0x6d, 0x6f, 0x64, 0x65,
  0x6c, 0x5f, 0x73, 0x6d, 0x61, 0x6c, 0x6c, 0x5f, 0x32, 0x2f, 0x63, 0x6f,
  0x6e, 0x76, 0x31, 0x64, 0x5f, 0x34, 0x2f, 0x43, 0x6f, 0x6e, 0x76, 0x31,
  0x44, 0x2f, 0x53, 0x71, 0x75, 0x65, 0x65, 0x7a, 0x65, 0x00, 0x00, 0x00,
  0x01, 0x00, 0x00, 0x00, 0x03, 0x00, 0x00, 0x00, 0x00, 0x00, 0x16, 0x00,
  0x1c, 0x00, 0x18, 0x00, 0x17, 0x00, 0x10, 0x00, 0x0c, 0x00, 0x08, 0x00,
  0x00, 0x00, 0x00, 0x00, 0x00, 0x00, 0x07, 0x00, 0x16, 0x00, 0x00, 0x00,
  0x00, 0x00, 0x00, 0x01, 0x14, 0x00, 0x00, 0x00, 0x14, 0x00, 0x00, 0x00,
  0x02, 0x00, 0x00, 0x00, 0x00, 0x00, 0x00, 0x02, 0x40, 0x00, 0x00, 0x00,
  0x7c, 0xff, 0xff, 0xff, 0x30, 0x00, 0x00, 0x00, 0x69, 0x6d, 0x75, 0x5f,
  0x6d, 0x6f, 0x64, 0x65, 0x6c, 0x5f, 0x73, 0x6d, 0x61, 0x6c, 0x6c, 0x5f,
  0x32, 0x2f, 0x63, 0x6f, 0x6e, 0x76, 0x31, 0x64, 0x5f, 0x34, 0x2f, 0x43,
  0x6f, 0x6e, 0x76, 0x31, 0x44, 0x2f, 0x45, 0x78, 0x70, 0x61, 0x6e, 0x64,
  0x44, 0x69, 0x6d, 0x73, 0x2f, 0x64, 0x69, 0x6d, 0x00, 0x00, 0x00, 0x00,
  0x00, 0x00, 0x00, 0x00, 0x00, 0x00, 0x16, 0x00, 0x1c, 0x00, 0x18, 0x00,
  0x00, 0x00, 0x14, 0x00, 0x10, 0x00, 0x0c, 0x00, 0x00, 0x00, 0x00, 0x00,
  0x08, 0x00, 0x07, 0x00, 0x16, 0x00, 0x00, 0x00, 0x00, 0x00, 0x00, 0x01,
  0x14, 0x00, 0x00, 0x00, 0x24, 0x00, 0x00, 0x00, 0x24, 0x00, 0x00, 0x00,
  0x01, 0x00, 0x00, 0x00, 0x3c, 0x00, 0x00, 0x00, 0x03, 0x00, 0x00, 0x00,
  0xff, 0xff, 0xff, 0xff, 0x2c, 0x01, 0x00, 0x00, 0x06, 0x00, 0x00, 0x00,
  0x04, 0x00, 0x04, 0x00, 0x04, 0x00, 0x00, 0x00, 0x19, 0x00, 0x00, 0x00,
  0x73, 0x65, 0x72, 0x76, 0x69, 0x6e, 0x67, 0x5f, 0x64, 0x65, 0x66, 0x61,
  0x75, 0x6c, 0x74, 0x5f, 0x69, 0x6e, 0x70, 0x75, 0x74, 0x5f, 0x31, 0x3a,
  0x30, 0x00, 0x00, 0x00, 0x03, 0x00, 0x00, 0x00, 0x01, 0x00, 0x00, 0x00,
  0x2c, 0x01, 0x00, 0x00, 0x06, 0x00, 0x00, 0x00, 0x0a, 0x00, 0x00, 0x00,
  0xc8, 0x00, 0x00, 0x00, 0xa8, 0x00, 0x00, 0x00, 0x88, 0x00, 0x00, 0x00,
  0x78, 0x00, 0x00, 0x00, 0x64, 0x00, 0x00, 0x00, 0x54, 0x00, 0x00, 0x00,
  0x40, 0x00, 0x00, 0x00, 0x2c, 0x00, 0x00, 0x00, 0x18, 0x00, 0x00, 0x00,
  0x04, 0x00, 0x00, 0x00, 0x88, 0xff, 0xff, 0xff, 0x06, 0x00, 0x00, 0x00,
  0x02, 0x00, 0x00, 0x00, 0x00, 0x00, 0x00, 0x06, 0x98, 0xff, 0xff, 0xff,
  0x19, 0x00, 0x00, 0x00, 0x02, 0x00, 0x00, 0x00, 0x00, 0x00, 0x00, 0x19,
  0xa8, 0xff, 0xff, 0xff, 0x09, 0x00, 0x00, 0x00, 0x04, 0x00, 0x00, 0x00,
  0x00, 0x00, 0x00, 0x09, 0xb8, 0xff, 0xff, 0xff, 0x11, 0x00, 0x00, 0x00,
  0x02, 0x00, 0x00, 0x00, 0x00, 0x00, 0x00, 0x11, 0xac, 0xff, 0xff, 0xff,
  0x16, 0x00, 0x00, 0x00, 0x00, 0x00, 0x00, 0x16, 0xd4, 0xff, 0xff, 0xff,
  0x03, 0x00, 0x00, 0x00, 0x03, 0x00, 0x00, 0x00, 0x00, 0x00, 0x00, 0x03,
  0xc8, 0xff, 0xff, 0xff, 0x46, 0x00, 0x00, 0x00, 0x00, 0x00, 0x00, 0x46,
  0xf0, 0xff, 0xff, 0xff, 0x12, 0x00, 0x00, 0x00, 0x02, 0x00, 0x00, 0x00,
  0x00, 0x00, 0x00, 0x12, 0x0c, 0x00, 0x10, 0x00, 0x0f, 0x00, 0x00, 0x00,
  0x08, 0x00, 0x04, 0x00, 0x0c, 0x00, 0x00, 0x00, 0x29, 0x00, 0x00, 0x00,
  0x02, 0x00, 0x00, 0x00, 0x00, 0x00, 0x00, 0x29, 0x0c, 0x00, 0x0c, 0x00,
  0x0b, 0x00, 0x00, 0x00, 0x00, 0x00, 0x04, 0x00, 0x0c, 0x00, 0x00, 0x00,
  0x72, 0x00, 0x00, 0x00, 0x00, 0x00, 0x00, 0x72
};


const int g_model_len = sizeof(g_model);